<unk>	0
<s>	0
</s>	0
<0x00>	0
<0x01>	0
<0x02>	0
<0x03>	0
<0x04>	0
<0x05>	0
<0x06>	0
<0x07>	0
<0x08>	0
<0x09>	0
<0x0A>	0
<0x0B>	0
<0x0C>	0
<0x0D>	0
<0x0E>	0
<0x0F>	0
<0x10>	0
<0x11>	0
<0x12>	0
<0x13>	0
<0x14>	0
<0x15>	0
<0x16>	0
<0x17>	0
<0x18>	0
<0x19>	0
<0x1A>	0
<0x1B>	0
<0x1C>	0
<0x1D>	0
<0x1E>	0
<0x1F>	0
<0x20>	0
<0x21>	0
<0x22>	0
<0x23>	0
<0x24>	0
<0x25>	0
<0x26>	0
<0x27>	0
<0x28>	0
<0x29>	0
<0x2A>	0
<0x2B>	0
<0x2C>	0
<0x2D>	0
<0x2E>	0
<0x2F>	0
<0x30>	0
<0x31>	0
<0x32>	0
<0x33>	0
<0x34>	0
<0x35>	0
<0x36>	0
<0x37>	0
<0x38>	0
<0x39>	0
<0x3A>	0
<0x3B>	0
<0x3C>	0
<0x3D>	0
<0x3E>	0
<0x3F>	0
<0x40>	0
<0x41>	0
<0x42>	0
<0x43>	0
<0x44>	0
<0x45>	0
<0x46>	0
<0x47>	0
<0x48>	0
<0x49>	0
<0x4A>	0
<0x4B>	0
<0x4C>	0
<0x4D>	0
<0x4E>	0
<0x4F>	0
<0x50>	0
<0x51>	0
<0x52>	0
<0x53>	0
<0x54>	0
<0x55>	0
<0x56>	0
<0x57>	0
<0x58>	0
<0x59>	0
<0x5A>	0
<0x5B>	0
<0x5C>	0
<0x5D>	0
<0x5E>	0
<0x5F>	0
<0x60>	0
<0x61>	0
<0x62>	0
<0x63>	0
<0x64>	0
<0x65>	0
<0x66>	0
<0x67>	0
<0x68>	0
<0x69>	0
<0x6A>	0
<0x6B>	0
<0x6C>	0
<0x6D>	0
<0x6E>	0
<0x6F>	0
<0x70>	0
<0x71>	0
<0x72>	0
<0x73>	0
<0x74>	0
<0x75>	0
<0x76>	0
<0x77>	0
<0x78>	0
<0x79>	0
<0x7A>	0
<0x7B>	0
<0x7C>	0
<0x7D>	0
<0x7E>	0
<0x7F>	0
<0x80>	0
<0x81>	0
<0x82>	0
<0x83>	0
<0x84>	0
<0x85>	0
<0x86>	0
<0x87>	0
<0x88>	0
<0x89>	0
<0x8A>	0
<0x8B>	0
<0x8C>	0
<0x8D>	0
<0x8E>	0
<0x8F>	0
<0x90>	0
<0x91>	0
<0x92>	0
<0x93>	0
<0x94>	0
<0x95>	0
<0x96>	0
<0x97>	0
<0x98>	0
<0x99>	0
<0x9A>	0
<0x9B>	0
<0x9C>	0
<0x9D>	0
<0x9E>	0
<0x9F>	0
<0xA0>	0
<0xA1>	0
<0xA2>	0
<0xA3>	0
<0xA4>	0
<0xA5>	0
<0xA6>	0
<0xA7>	0
<0xA8>	0
<0xA9>	0
<0xAA>	0
<0xAB>	0
<0xAC>	0
<0xAD>	0
<0xAE>	0
<0xAF>	0
<0xB0>	0
<0xB1>	0
<0xB2>	0
<0xB3>	0
<0xB4>	0
<0xB5>	0
<0xB6>	0
<0xB7>	0
<0xB8>	0
<0xB9>	0
<0xBA>	0
<0xBB>	0
<0xBC>	0
<0xBD>	0
<0xBE>	0
<0xBF>	0
<0xC0>	0
<0xC1>	0
<0xC2>	0
<0xC3>	0
<0xC4>	0
<0xC5>	0
<0xC6>	0
<0xC7>	0
<0xC8>	0
<0xC9>	0
<0xCA>	0
<0xCB>	0
<0xCC>	0
<0xCD>	0
<0xCE>	0
<0xCF>	0
<0xD0>	0
<0xD1>	0
<0xD2>	0
<0xD3>	0
<0xD4>	0
<0xD5>	0
<0xD6>	0
<0xD7>	0
<0xD8>	0
<0xD9>	0
<0xDA>	0
<0xDB>	0
<0xDC>	0
<0xDD>	0
<0xDE>	0
<0xDF>	0
<0xE0>	0
<0xE1>	0
<0xE2>	0
<0xE3>	0
<0xE4>	0
<0xE5>	0
<0xE6>	0
<0xE7>	0
<0xE8>	0
<0xE9>	0
<0xEA>	0
<0xEB>	0
<0xEC>	0
<0xED>	0
<0xEE>	0
<0xEF>	0
<0xF0>	0
<0xF1>	0
<0xF2>	0
<0xF3>	0
<0xF4>	0
<0xF5>	0
<0xF6>	0
<0xF7>	0
<0xF8>	0
<0xF9>	0
<0xFA>	0
<0xFB>	0
<0xFC>	0
<0xFD>	0
<0xFE>	0
<0xFF>	0
▁	-3.72708
,	-3.87577
▁the	-3.87662
.	-4.044
、	-4.12906
s	-4.15147
▁of	-4.39727
。	-4.44015
)	-4.51415
の	-4.569
▁and	-4.59303
▁in	-4.66231
▁a	-4.97355
▁to	-4.97951
年	-5.12103
(	-5.1602
-	-5.23084
は	-5.23447
・	-5.26307
が	-5.2902
▁(	-5.36529
を	-5.37418
に	-5.49612
▁was	-5.55227
▁The	-5.60401
▁-	-5.64077
'	-5.71574
:	-5.73109
▁is	-5.79964
▁for	-5.8553
月	-5.86079
で	-5.86293
と	-5.94385
▁as	-5.96053
▁by	-5.98026
」	-5.98978
▁on	-5.99243
▁with	-6.04264
「	-6.11019
▁"	-6.19852
▁from	-6.24193
日	-6.24234
ed	-6.30926
ing	-6.3142
▁that	-6.31911
▁at	-6.3236
1	-6.33265
2	-6.42978
"	-6.48937
▁In	-6.51372
▁his	-6.51608
3	-6.60572
e	-6.61819
した	-6.66339
▁an	-6.67328
▁he	-6.70017
し	-6.70508
』	-6.70687
d	-6.70737
から	-6.74647
や	-6.76429
▁A	-6.76765
4	-6.80727
a	-6.82249
も	-6.85647
▁–	-6.87353
する	-6.88721
▁were	-6.89363
er	-6.90625
th	-6.91106
▁are	-6.913
▁He	-6.9223
▁which	-6.95145
y	-6.96499
▁it	-6.96911
▁also	-6.9708
である	-7.02405
/	-7.02808
t	-7.04745
▁be	-7.04867
『	-7.0723
ly	-7.09238
として	-7.1065
i	-7.13276
5	-7.1369
o	-7.14251
▁or	-7.14406
では	-7.15974
S	-7.18699
6	-7.20104
▁had	-7.20756
▁has	-7.21597
▁first	-7.24062
al	-7.24238
),	-7.31307
n	-7.31636
7	-7.31854
;	-7.32886
10	-7.33286
▁||	-7.342
9	-7.34283
es	-7.35398
た	-7.36577
▁their	-7.36891
る	-7.37466
▁It	-7.37556
–	-7.37796
8	-7.39394
in	-7.4178
▁not	-7.41979
大	-7.42338
▁who	-7.42588
▁S	-7.42733
市	-7.43182
▁but	-7.43317
▁one	-7.44119
な	-7.45611
▁its	-7.45921
ス	-7.46866
▁American	-7.48977
A	-7.50235
m	-7.51423
▁her	-7.52722
▁have	-7.53281
第	-7.54492
▁|	-7.54733
▁New	-7.54758
▁two	-7.55204
には	-7.55549
▁this	-7.55561
C	-7.56508
人	-7.57047
された	-7.58198
▁References	-7.58311
▁I	-7.60638
駅	-7.63088
一	-7.63319
▁been	-7.65426
▁de	-7.66406
して	-7.68957
▁1	-7.69021
12	-7.69216
▁after	-7.69848
している	-7.70086
子	-7.70254
町	-7.71527
という	-7.7168
r	-7.72098
▁C	-7.72638
線	-7.72745
▁『	-7.72914
11	-7.73712
▁B	-7.73783
▁re	-7.75097
B	-7.75762
st	-7.75985
など	-7.76866
山	-7.76941
また	-7.78629
en	-7.79024
この	-7.79278
▁other	-7.79671
▁into	-7.79796
その	-7.80414
k	-7.81503
▁United	-7.81607
ト	-7.82057
い	-7.84304
▁they	-7.8445
▁2	-7.84992
▁time	-7.85381
g	-7.85547
an	-7.86467
本	-7.87338
り	-7.87463
man	-7.88108
▁over	-7.88479
号	-7.88776
▁people	-7.88799
us	-7.89269
▁all	-7.89304
▁E	-7.90896
▁D	-7.91843
▁G	-7.91953
▁3	-7.92011
昭和	-7.92913
ア	-7.93236
▁P	-7.9327
▁F	-7.93337
▁links	-7.93441
て	-7.93518
▁University	-7.94145
on	-7.9431
田	-7.94518
▁K	-7.94642
F	-7.94766
中	-7.95008
村	-7.9526
▁External	-7.95546
▁when	-7.96224
か	-7.96256
or	-7.96733
川	-7.96845
ク	-7.97158
日本	-7.98595
▁M	-7.9861
回	-7.9924
▁W	-7.99412
▁she	-8.00465
ラ	-8.00919
▁U	-8.01031
▁players	-8.01091
).	-8.02043
ド	-8.0207
▁On	-8.02089
▁new	-8.02633
20	-8.02792
D	-8.03179
c	-8.03211
▁years	-8.03228
▁up	-8.03362
▁more	-8.03779
▁would	-8.03864
▁This	-8.04462
上	-8.05323
部	-8.0542
▁only	-8.05638
▁out	-8.05663
年に	-8.05944
u	-8.06348
ズ	-8.06606
▁during	-8.06833
l	-8.07158
され	-8.0774
される	-8.07825
による	-8.08352
ている	-8.08654
長	-8.08816
b	-8.08838
M	-8.08847
道	-8.09348
▁where	-8.09367
国	-8.09556
▁can	-8.09959
▁him	-8.10026
新	-8.1008
リ	-8.10342
▁about	-8.10446
▁4	-8.10832
▁between	-8.10924
▁T	-8.10928
▁States	-8.11478
I	-8.11642
K	-8.11665
く	-8.11887
15	-8.12324
により	-8.12528
▁17	-8.12896
h	-8.129
T	-8.13046
G	-8.13343
!	-8.1382
30	-8.13859
ers	-8.13917
W	-8.13921
名	-8.14192
▁used	-8.14441
家	-8.14501
▁three	-8.14709
▁World	-8.15117
前	-8.15162
法	-8.16121
re	-8.16649
z	-8.17586
=	-8.18152
▁season	-8.18326
、「	-8.18408
▁R	-8.18839
E	-8.18863
18	-8.18961
▁later	-8.19002
ar	-8.19459
▁St	-8.19526
▁under	-8.19627
to	-8.19718
ル	-8.1973
▁part	-8.19821
平成	-8.19921
▁School	-8.19942
ic	-8.20046
▁most	-8.20074
▁O	-8.20327
▁film	-8.20516
ナ	-8.21278
水	-8.21707
カ	-8.2174
▁made	-8.2184
三	-8.22245
者	-8.22376
き	-8.22647
el	-8.23446
▁&	-8.2355
となる	-8.23617
P	-8.23861
▁10	-8.23983
話	-8.2404
▁National	-8.24155
内	-8.24433
分	-8.2448
▁known	-8.24899
島	-8.25049
マ	-8.2506
▁team	-8.25264
み	-8.25534
へ	-8.25567
▁then	-8.25632
▁第	-8.25656
同	-8.26133
ion	-8.26926
元	-8.26955
ch	-8.26975
p	-8.27104
▁year	-8.27228
地	-8.27288
タ	-8.27296
▁such	-8.27348
下	-8.27893
▁became	-8.28016
となった	-8.28446
生	-8.28522
J	-8.28528
ton	-8.28773
高	-8.28885
▁5	-8.29018
されている	-8.2937
▁than	-8.29768
化	-8.29832
野	-8.30003
17	-8.30026
によって	-8.30424
)。	-8.30485
▁being	-8.30499
le	-8.30563
▁J	-8.30729
R	-8.30734
東	-8.30845
na	-8.317
シ	-8.31876
▁school	-8.32296
▁She	-8.32575
▁some	-8.32801
▁「	-8.33015
手	-8.331
".	-8.33354
▁John	-8.33374
▁20	-8.33581
▁War	-8.34136
14	-8.34149
▁N	-8.34341
16	-8.34465
への	-8.34537
ロ	-8.34577
▁second	-8.34631
▁York	-8.34789
ia	-8.34816
ne	-8.34946
▁well	-8.34987
原	-8.35211
った	-8.35315
であり	-8.35376
より	-8.35428
▁series	-8.35447
▁through	-8.35561
▁L	-8.35817
13	-8.35902
▁12	-8.36028
▁As	-8.36116
25	-8.36318
コ	-8.3636
▁there	-8.36396
▁16	-8.36546
f	-8.36615
▁no	-8.3664
",	-8.36691
ation	-8.36709
L	-8.37183
▁6	-8.37897
す	-8.38018
▁7	-8.38371
郡	-8.38627
がある	-8.38832
▁H	-8.38916
."	-8.39014
▁including	-8.39252
H	-8.39588
de	-8.39681
ry	-8.40047
戦	-8.40533
ノ	-8.40626
▁County	-8.40694
▁After	-8.40784
会	-8.40848
▁before	-8.4094
大学	-8.41043
▁South	-8.41215
▁name	-8.41435
▁May	-8.41592
ら	-8.41728
後	-8.42
西	-8.42067
▁against	-8.42349
▁while	-8.42444
バ	-8.42484
であった	-8.42557
▁many	-8.42911
ta	-8.42945
▁album	-8.4332
N	-8.44054
▁/	-8.44264
イ	-8.44332
▁18	-8.44552
▁15	-8.44682
▁until	-8.45047
まで	-8.45552
』(	-8.45615
▁No	-8.45678
南	-8.45746
▁V	-8.46025
小	-8.46043
ミ	-8.46085
お	-8.46185
していた	-8.4634
▁British	-8.46362
is	-8.46565
born	-8.47355
▁2006	-8.4737
▁Al	-8.47556
放送	-8.47564
▁8	-8.47748
的	-8.47886
The	-8.48111
つ	-8.4848
▁work	-8.48509
▁9	-8.4862
▁played	-8.48659
▁area	-8.48666
日に	-8.48717
▁number	-8.48743
正	-8.48744
ist	-8.48897
との	-8.48959
▁both	-8.49006
ダ	-8.49808
▁La	-8.49831
V	-8.49843
id	-8.50028
オ	-8.50133
型	-8.50782
社	-8.50949
平	-8.51021
▁League	-8.51325
21	-8.5142
▁De	-8.51432
▁See	-8.51514
性	-8.516
フ	-8.51756
全	-8.51834
数	-8.51875
ム	-8.52298
ため	-8.52592
▁them	-8.5269
▁City	-8.52723
24	-8.52798
▁English	-8.53188
▁Re	-8.53199
城	-8.53217
時	-8.53285
美	-8.53636
にも	-8.53688
エ	-8.54152
さ	-8.54405
木	-8.54833
見	-8.54969
サ	-8.55447
北	-8.55488
te	-8.55514
〜	-8.55595
19	-8.55647
レ	-8.55673
和	-8.55815
▁August	-8.55934
位	-8.56198
▁game	-8.56274
▁11	-8.56666
行	-8.56808
ian	-8.56985
▁won	-8.57052
▁released	-8.57144
神	-8.57229
用	-8.57369
二	-8.57922
22	-8.57975
版	-8.58075
O	-8.58283
at	-8.58548
▁may	-8.58556
the	-8.58581
的な	-8.58712
ra	-8.58714
代	-8.59002
▁March	-8.59403
▁four	-8.59427
▁September	-8.59507
光	-8.59991
▁state	-8.60271
王	-8.60629
▁State	-8.61158
as	-8.61398
リー	-8.61405
ity	-8.61617
||	-8.6184
it	-8.61884
▁June	-8.61966
▁At	-8.62001
でも	-8.62023
▁former	-8.62026
x	-8.62152
などの	-8.62251
▁North	-8.6232
デ	-8.62426
▁life	-8.62739
文	-8.62769
ro	-8.62812
形	-8.62937
出	-8.6296
▁station	-8.63277
23	-8.63837
century	-8.64054
▁so	-8.64061
▁January	-8.64181
▁called	-8.64409
▁October	-8.64522
▁July	-8.64593
海	-8.64629
所	-8.64963
▁History	-8.65068
面	-8.6519
▁several	-8.65216
金	-8.65295
ジ	-8.65424
w	-8.65492
▁Le	-8.65583
機	-8.65603
等	-8.65679
系	-8.65862
26	-8.65982
車	-8.66007
▁His	-8.66027
▁same	-8.66051
land	-8.66062
28	-8.6607
▁Co	-8.66232
だった	-8.66552
▁football	-8.66656
区	-8.66754
▁2007	-8.67016
物	-8.67121
▁end	-8.67129
明	-8.6717
マン	-8.67289
立	-8.67324
▁April	-8.67352
co	-8.67435
27	-8.67605
▁career	-8.67639
間	-8.67794
外	-8.67886
▁14	-8.68653
▁early	-8.69051
学	-8.69085
▁family	-8.69198
▁un	-8.69205
et	-8.69287
▁They	-8.694
▁following	-8.69405
う	-8.69548
ツ	-8.69896
キ	-8.69902
バス	-8.69919
東京	-8.69961
able	-8.70006
no	-8.70127
ma	-8.70637
ネ	-8.70684
son	-8.70691
って	-8.70702
ment	-8.71039
▁will	-8.71087
▁13	-8.7139
チ	-8.71484
ニ	-8.71521
寺	-8.71634
▁An	-8.71677
▁back	-8.71775
▁—	-8.7186
▁December	-8.71931
作品	-8.71954
29	-8.72058
」(	-8.72149
il	-8.72173
シリーズ	-8.72205
▁November	-8.7238
ン	-8.73245
作	-8.73288
ブ	-8.73688
ate	-8.73837
ウ	-8.73938
ive	-8.7394
▁West	-8.73993
ine	-8.74076
▁2005	-8.74454
▁home	-8.74517
▁music	-8.75181
nd	-8.7519
式	-8.75334
▁since	-8.75471
場	-8.75511
▁births	-8.75524
モ	-8.75632
▁population	-8.75723
▁these	-8.75758
ガ	-8.75874
ま	-8.75912
▁group	-8.76081
語	-8.76215
▁use	-8.76256
am	-8.76449
▁song	-8.76735
口	-8.76955
▁city	-8.7711
▁College	-8.77318
のみ	-8.77321
目	-8.77657
▁high	-8.77705
▁men	-8.77806
ley	-8.78023
▁established	-8.78512
▁games	-8.78815
旧	-8.78989
▁found	-8.79149
▁named	-8.79239
ism	-8.7925
曲	-8.79443
▁外部リンク	-8.79455
ter	-8.79531
での	-8.79543
▁All	-8.79545
▁based	-8.79853
▁2000	-8.79899
ur	-8.80037
点	-8.80088
▁located	-8.80109
▁began	-8.80513
um	-8.80546
しかし	-8.80555
31	-8.80594
州	-8.80654
▁band	-8.8074
力	-8.81008
番組	-8.81218
▁For	-8.81424
da	-8.81551
勝	-8.81704
▁place	-8.82043
イン	-8.82219
こ	-8.82469
屋	-8.82582
公	-8.82765
ない	-8.82766
いた	-8.8292
において	-8.83013
方	-8.8317
ゲーム	-8.83217
石	-8.83338
▁There	-8.83466
▁government	-8.83615
▁Man	-8.83773
ていた	-8.83815
X	-8.84206
体	-8.84283
映画	-8.84374
現	-8.84375
谷	-8.84436
▁2004	-8.8452
▁San	-8.84525
▁each	-8.84573
]	-8.84603
▁February	-8.84783
40	-8.84852
▁films	-8.84904
la	-8.8495
井	-8.85061
▁set	-8.85153
▁II	-8.85301
se	-8.85483
▁German	-8.8556
通	-8.85736
▁Me	-8.85749
ad	-8.86067
局	-8.86104
ty	-8.86138
▁To	-8.86201
だ	-8.8624
発	-8.86244
テレビ	-8.86414
ge	-8.86416
および	-8.86505
com	-8.86532
▁Cup	-8.86575
▁co	-8.86839
巻	-8.86902
科	-8.87093
宮	-8.87266
▁However	-8.8733
▁local	-8.87389
無	-8.87544
ザ	-8.87624
パ	-8.87626
▁club	-8.87833
ビ	-8.87916
▁single	-8.87932
▁2008	-8.87966
後に	-8.88055
メ	-8.8863
j	-8.8877
重	-8.88832
ie	-8.88957
ca	-8.89222
ティ	-8.89432
事	-8.89447
▁member	-8.8956
軍	-8.89563
me	-8.89581
不	-8.89702
▁French	-8.90012
▁century	-8.90014
▁members	-8.90058
ディ	-8.90444
台	-8.90633
▁television	-8.90687
▁High	-8.90783
グ	-8.91055
▁Mar	-8.91155
▁19	-8.91342
be	-8.9135
プ	-8.91508
天	-8.91558
▁due	-8.91613
▁system	-8.91779
▁International	-8.92118
os	-8.92126
U	-8.92192
鉄道	-8.92197
▁Park	-8.92256
▁company	-8.9243
男	-8.92538
年の	-8.92558
▁did	-8.92561
age	-8.92575
▁long	-8.92704
▁21	-8.92833
▁London	-8.92856
約	-8.92868
月に	-8.93135
とは	-8.93235
▁around	-8.93343
up	-8.9349
テ	-8.9354
▁player	-8.93628
▁1990	-8.93661
▁People	-8.93702
気	-8.9387
▁published	-8.94052
役	-8.94059
▁now	-8.94103
li	-8.94206
▁served	-8.94297
▁House	-8.94311
番	-8.94453
é	-8.94468
▁built	-8.9452
流	-8.94629
▁took	-8.94751
▁River	-8.94753
ary	-8.94807
▁any	-8.94884
橋	-8.94987
▁public	-8.95059
両	-8.95232
▁held	-8.95254
世	-8.95299
un	-8.95365
店	-8.95519
め	-8.95748
書	-8.96117
▁could	-8.962
▁along	-8.96325
▁2010	-8.96439
▁town	-8.96472
50	-8.96713
▁List	-8.9711
’	-8.97208
&	-8.97476
となり	-8.97571
ce	-8.97596
」「	-8.97597
▁2003	-8.97713
▁left	-8.97833
賞	-8.97936
にある	-8.98046
ir	-8.98065
▁small	-8.98082
風	-8.98087
Y	-8.98111
音	-8.98191
den	-8.98205
▁line	-8.9842
▁役	-8.98481
v	-8.98535
カー	-8.98596
ni	-8.98793
ti	-8.9901
時間	-8.99302
ka	-8.99313
信	-8.9934
セ	-8.99474
馬	-8.99533
▁show	-8.99564
女	-8.99573
▁日本の	-8.99619
▁US	-8.99631
ー	-9.00064
頭	-9.00285
における	-9.00301
世界	-9.00353
▁do	-9.00378
go	-9.00579
▁During	-9.00677
▁2002	-9.00707
こと	-9.00981
～	-9.00985
▁national	-9.00998
▁2009	-9.01019
▁history	-9.01152
▁final	-9.01169
ハ	-9.01465
ッ	-9.01604
▁large	-9.01627
真	-9.01786
▁last	-9.02154
▁include	-9.02154
直	-9.02216
主	-9.02218
▁2001	-9.02221
▁play	-9.02381
義	-9.02556
ke	-9.02637
ul	-9.02703
="	-9.02736
ゴ	-9.02907
ボ	-9.0296
▁own	-9.03384
成	-9.03389
入	-9.03391
▁Be	-9.03436
▁km	-9.03515
▁world	-9.03818
ated	-9.04041
der	-9.0407
▁day	-9.04142
▁like	-9.04173
県	-9.04477
▁because	-9.04499
▁2011	-9.04564
ri	-9.04653
ga	-9.04756
▁England	-9.04872
津	-9.04899
▁California	-9.04921
▁five	-9.05083
▁Con	-9.05101
▁off	-9.05243
バー	-9.05441
ant	-9.05636
地域	-9.0564
▁death	-9.05647
ん	-9.05725
▁died	-9.06058
and	-9.06068
▁village	-9.06123
教育	-9.06207
▁included	-9.06242
di	-9.06282
▁Mo	-9.0633
▁East	-9.06349
▁1980	-9.06528
アン	-9.06705
▁born	-9.06799
▁women	-9.06851
▁water	-9.06852
有	-9.06863
▁received	-9.06957
心	-9.06966
ラー	-9.06974
あ	-9.07035
その後	-9.07193
▁One	-9.07404
ケ	-9.07422
知	-9.07543
活動	-9.07609
官	-9.07787
▁Australia	-9.07891
▁style	-9.07955
ner	-9.07984
度	-9.08192
次	-9.08251
▁original	-9.0831
▁p	-9.08497
となっている	-9.08779
”	-9.09301
的に	-9.09325
、『	-9.09346
明治	-9.09353
▁war	-9.09416
ター	-9.09424
▁within	-9.09442
▁book	-9.09567
▁down	-9.09613
▁record	-9.09635
江	-9.09641
夫	-9.09852
わ	-9.09971
▁District	-9.09995
白	-9.10003
ヤ	-9.10044
Z	-9.10115
スト	-9.10205
one	-9.10431
各	-9.10436
別	-9.1048
え	-9.10493
→	-9.10518
do	-9.10532
なお	-9.10536
沢	-9.10576
va	-9.10653
▁main	-9.10723
安	-9.10765
武	-9.10836
▁third	-9.10878
▁service	-9.11018
▁major	-9.11049
▁another	-9.11246
▁dis	-9.11411
▁'	-9.11539
▁son	-9.11577
ol	-9.1158
史	-9.11643
▁said	-9.11727
ent	-9.11762
監督	-9.11911
▁district	-9.11959
同年	-9.1228
0	-9.12454
▁still	-9.12503
館	-9.12505
ous	-9.12803
について	-9.12816
▁building	-9.12864
▁near	-9.1288
▁Z	-9.12923
by	-9.12934
門	-9.13037
▁Australian	-9.13103
学校	-9.13169
▁non	-9.13185
さらに	-9.13319
とする	-9.1332
▁children	-9.13363
▁Sa	-9.13537
▁William	-9.13567
▁side	-9.13587
だが	-9.13589
万	-9.13689
ard	-9.13869
60	-9.1402
▁male	-9.14058
期	-9.14132
▁Street	-9.14234
▁Pro	-9.14283
久	-9.14701
ワ	-9.14838
im	-9.14879
▁version	-9.1515
色	-9.15163
花	-9.15257
からの	-9.15321
ak	-9.15423
▁form	-9.15493
になる	-9.15577
とも	-9.15641
▁short	-9.15827
▁pre	-9.16015
条	-9.16078
吉	-9.16114
sh	-9.16186
船	-9.16409
▁different	-9.16466
lin	-9.166
られた	-9.16644
▁very	-9.16697
事業	-9.16813
▁George	-9.16853
室	-9.16889
▁When	-9.17123
▁2012	-9.17153
▁1970	-9.17218
ko	-9.1723
▁Go	-9.17284
▁Na	-9.1736
ha	-9.17388
人の	-9.17403
▁Award	-9.1743
▁north	-9.17439
▁Bo	-9.17472
ット	-9.17493
▁moved	-9.17511
星	-9.17595
ラン	-9.17665
歌	-9.17688
愛	-9.1777
▁Ka	-9.17846
にて	-9.17857
men	-9.17888
100	-9.18159
ve	-9.18237
▁Canada	-9.18254
▁Canadian	-9.18282
▁if	-9.18353
ba	-9.18385
情報	-9.1857
em	-9.18658
▁1999	-9.18974
▁often	-9.19112
ja	-9.19151
▁con	-9.19189
初	-9.19194
多	-9.19247
▁James	-9.19272
▁per	-9.19297
ち	-9.19319
▁again	-9.19336
ling	-9.19464
〈	-9.19484
コン	-9.19633
mo	-9.19667
雄	-9.19699
年度	-9.19824
ah	-9.19899
もの	-9.1997
ya	-9.20143
▁best	-9.20257
ber	-9.20273
▁period	-9.20318
ies	-9.20365
日本の	-9.20416
▁head	-9.20427
制	-9.20481
▁Music	-9.20527
▁country	-9.20544
文化	-9.20778
プロ	-9.20862
▁support	-9.20872
▁Ar	-9.2102
▁title	-9.21135
編	-9.2119
▁Car	-9.21235
▁King	-9.21473
▁Lo	-9.21546
▁Air	-9.21574
▁students	-9.21577
est	-9.21624
▁site	-9.21657
▁By	-9.21786
▁Road	-9.21806
高等学校	-9.21809
▁million	-9.21821
じ	-9.21887
記	-9.21894
▁m	-9.21897
▁produced	-9.21906
▁Church	-9.21997
▁late	-9.22002
▁X	-9.22033
|	-9.22097
対	-9.22209
▁species	-9.22226
▁pro	-9.22267
IC	-9.22613
総	-9.22773
里	-9.22823
▁father	-9.22921
院	-9.22931
▁just	-9.22983
む	-9.23243
align	-9.23302
できる	-9.23468
▁Association	-9.23776
シュ	-9.23777
ロー	-9.23784
▁led	-9.24014
ham	-9.24077
着	-9.24086
▁top	-9.24126
▁make	-9.24175
▁Army	-9.24386
アメリカ	-9.24432
way	-9.24453
▁David	-9.24557
▁India	-9.24865
ヒ	-9.24873
▁France	-9.24917
▁came	-9.25237
尾	-9.25441
空	-9.2545
っている	-9.25669
中央	-9.25671
権	-9.25764
論	-9.25773
れ	-9.2578
及び	-9.25858
ギ	-9.25913
▁:	-9.26001
合	-9.26036
▁[	-9.26066
▁those	-9.26181
年には	-9.26184
▁written	-9.26282
dy	-9.2638
清	-9.26467
▁2013	-9.26511
千	-9.26543
—	-9.26569
があり	-9.26607
▁Living	-9.26703
▁El	-9.26725
):	-9.26743
ler	-9.26858
▁role	-9.26919
古	-9.26921
小学校	-9.27106
ば	-9.27128
▁Paul	-9.27143
▁total	-9.27147
▁six	-9.2715
▁Club	-9.27198
朝	-9.2726
▁1998	-9.27365
集	-9.274
種	-9.27405
▁America	-9.27449
音楽	-9.27473
▁order	-9.27504
con	-9.2754
per	-9.2759
政	-9.27591
よ	-9.27718
治	-9.27722
▁car	-9.27918
四	-9.2801
国際	-9.28066
ov	-9.28109
▁south	-9.28116
▁production	-9.28132
time	-9.28149
▁general	-9.28212
▁2014	-9.28251
になった	-9.28255
丸	-9.28324
▁Royal	-9.28378
選手	-9.28525
▁General	-9.28638
ts	-9.28824
▁Red	-9.28834
▁went	-9.28865
▁deaths	-9.28887
...	-9.28928
問題	-9.28929
氏	-9.29033
ster	-9.29062
ll	-9.29107
▁Records	-9.29124
電	-9.29291
ある	-9.29347
▁2015	-9.29377
▁30	-9.29517
々	-9.29669
▁Ha	-9.29697
▁much	-9.29771
それ	-9.29909
ソ	-9.29985
ベ	-9.30209
太	-9.30361
株式会社	-9.30361
ており	-9.30415
センター	-9.30431
▁Indian	-9.30469
関係	-9.30508
当時	-9.30516
▁c	-9.30616
制作	-9.30748
rd	-9.30868
▁Ho	-9.31015
▁European	-9.31036
実	-9.31125
▁From	-9.31132
▁Ko	-9.31154
▁what	-9.31214
▁become	-9.31233
チーム	-9.3131
アル	-9.31383
▁Division	-9.31403
he	-9.31443
ted	-9.31518
しており	-9.31592
組	-9.31605
▁power	-9.3161
▁Party	-9.31778
?	-9.31853
ang	-9.31972
▁law	-9.31981
円	-9.32036
ting	-9.32142
開発	-9.32148
派	-9.32209
ut	-9.32381
lo	-9.32388
サン	-9.32539
▁given	-9.32566
さん	-9.32601
定	-9.3265
les	-9.32684
級	-9.327
mm	-9.32779
▁age	-9.32792
▁大	-9.3282
io	-9.32828
事件	-9.3284
を持つ	-9.32853
▁2016	-9.32857
80	-9.32917
▁development	-9.33071
試合	-9.333
ina	-9.33395
▁sub	-9.33495
松	-9.33524
▁Hall	-9.33527
隊	-9.33656
システム	-9.33761
▁field	-9.33805
pa	-9.33838
▁Black	-9.33854
士	-9.33902
▁Do	-9.34165
歳	-9.3426
これは	-9.34286
▁community	-9.34359
ラジオ	-9.34434
▁Ra	-9.34564
▁Robert	-9.34701
▁video	-9.3479
▁opened	-9.34884
進	-9.34888
校	-9.3489
ally	-9.35175
都市	-9.35213
▁Other	-9.35232
ダー	-9.3535
志	-9.35361
来	-9.35397
▁Her	-9.35475
▁various	-9.35478
▁started	-9.35535
▁Li	-9.35623
▁di	-9.35661
土	-9.35684
ness	-9.35685
路線	-9.35777
▁having	-9.35859
▁international	-9.36005
ポ	-9.36052
例	-9.36112
▁league	-9.36133
車両	-9.36228
施設	-9.3629
po	-9.364
英	-9.36452
されていた	-9.3651
ただし	-9.36538
35	-9.36596
シー	-9.36653
▁land	-9.36662
▁Act	-9.36673
▁albums	-9.36693
▁Or	-9.36758
▁Council	-9.3676
ana	-9.36952
身	-9.36976
▁next	-9.36981
wa	-9.37035
▁Football	-9.37117
▁take	-9.37121
研究	-9.37188
ger	-9.37336
field	-9.37349
▁professional	-9.37419
母	-9.3746
ver	-9.37614
▁1996	-9.37661
▁Y	-9.37732
▁returned	-9.37744
▁1960	-9.37808
▁These	-9.37929
開始	-9.3801
之	-9.38024
▁First	-9.38256
広	-9.38318
▁25	-9.38513
▁using	-9.38568
リン	-9.38577
ong	-9.38617
座	-9.3862
発売	-9.38621
大阪	-9.38704
▁among	-9.38792
ru	-9.388
ナー	-9.38852
ish	-9.38881
ki	-9.38909
▁Se	-9.39069
現在の	-9.39099
んだ	-9.39123
スター	-9.39216
ey	-9.39265
mer	-9.39337
▁even	-9.39344
▁songs	-9.39359
教	-9.39504
年生	-9.39516
自	-9.39536
–19	-9.39539
▁1997	-9.39564
シーズン	-9.39645
+	-9.39665
▁Press	-9.39745
▁Union	-9.39804
▁1988	-9.39876
TV	-9.40128
▁日本	-9.4015
▁With	-9.40221
黒	-9.40233
特に	-9.40267
大会	-9.4037
▁house	-9.40378
45	-9.40383
▁win	-9.40512
御	-9.40513
▁created	-9.40525
▁round	-9.40534
ず	-9.40551
良	-9.40569
JR	-9.40578
▁My	-9.40868
▁way	-9.40993
▁Japan	-9.41003
▁TV	-9.41061
▁post	-9.4119
中学校	-9.41258
▁old	-9.41317
林	-9.41377
▁Art	-9.41408
90	-9.41415
tic	-9.41452
リーグ	-9.41463
▁Di	-9.41547
▁however	-9.41652
▁24	-9.41678
bo	-9.41793
ホ	-9.41857
▁region	-9.41933
▁Ta	-9.41961
▁(18	-9.42186
line	-9.42223
▁Roman	-9.4227
▁website	-9.42308
▁Po	-9.42397
70	-9.42426
兵	-9.4248
▁military	-9.42545
に対して	-9.4257
▁Su	-9.42676
達	-9.42683
春	-9.42716
▁Dr	-9.42732
TBS	-9.42813
他	-9.42822
先	-9.42947
▁Ne	-9.43017
▁schools	-9.43176
戦争	-9.43261
▁man	-9.43316
▁announced	-9.43322
▁character	-9.43324
死	-9.4338
pe	-9.4346
▁full	-9.43522
▁Germany	-9.43759
ac	-9.43808
rs	-9.43822
55	-9.43829
▁Company	-9.43877
グループ	-9.43897
▁Championship	-9.44052
▁b	-9.44085
五	-9.44141
▁1986	-9.44198
ペ	-9.44206
▁Italian	-9.4421
▁political	-9.44236
地区	-9.44358
ex	-9.44393
▁present	-9.44398
▁joined	-9.444
▁Year	-9.44426
▁Japanese	-9.44485
ピ	-9.44564
▁Group	-9.4462
ized	-9.44712
販売	-9.44714
▁few	-9.44727
▁2017	-9.44748
▁Washington	-9.44791
▁f	-9.44813
宗	-9.44871
au	-9.44879
▁air	-9.44969
▁Order	-9.44995
すると	-9.44995
▁art	-9.45094
社会	-9.45121
▁married	-9.45163
▁run	-9.45321
▁1995	-9.45412
堂	-9.45413
▁1991	-9.45416
▁Best	-9.45425
計画	-9.45435
▁program	-9.45436
品	-9.45522
アニメ	-9.45588
▁position	-9.45659
sa	-9.4566
▁Catholic	-9.45668
については	-9.45736
開	-9.45946
▁=	-9.45993
▁1984	-9.46093
トン	-9.46144
▁live	-9.46185
会社	-9.46317
永	-9.46471
ソン	-9.4662
訳	-9.46675
▁la	-9.46693
▁church	-9.46698
side	-9.46813
ville	-9.46815
▁2018	-9.46828
year	-9.46849
モデル	-9.46867
業	-9.46869
総合	-9.4689
▁Lake	-9.47018
▁1994	-9.47064
less	-9.47121
NHK	-9.47147
Q	-9.47215
▁Court	-9.47309
利	-9.47317
vo	-9.47357
48	-9.47436
っ	-9.47449
ドラマ	-9.47451
á	-9.47537
と共に	-9.47628
▁Michael	-9.47672
ック	-9.47688
▁Pe	-9.47713
▁Green	-9.47785
け	-9.47801
▁Ma	-9.47803
▁Kingdom	-9.47844
ck	-9.47935
▁1985	-9.48016
市立	-9.48022
▁times	-9.48075
マー	-9.48085
当	-9.48127
bi	-9.48289
▁UK	-9.48308
られる	-9.48436
▁works	-9.48452
交通	-9.48484
▁President	-9.48501
他の	-9.48551
▁without	-9.48647
▁director	-9.48799
相	-9.48815
女性	-9.49024
坂	-9.49043
▁Island	-9.49049
▁popular	-9.49177
地方	-9.49179
技術	-9.49226
太郎	-9.49238
ジャ	-9.49278
時代	-9.49331
▁wrote	-9.49351
半	-9.49385
根	-9.49512
▁recorded	-9.49541
カード	-9.49568
▁Bay	-9.49662
省	-9.49708
崎	-9.49747
アルバム	-9.49793
ance	-9.49838
出演	-9.49873
▁So	-9.49941
伝	-9.49985
▁point	-9.5008
▁Hu	-9.5013
▁control	-9.50156
ship	-9.50188
▁Men	-9.5021
と呼ばれる	-9.50229
八	-9.50363
▁radio	-9.50412
のため	-9.50487
もある	-9.50494
攻撃	-9.50534
▁track	-9.50608
▁1,	-9.50623
弾	-9.50729
sen	-9.50809
岡	-9.5082
聖	-9.50822
▁Bar	-9.50932
▁Thomas	-9.51043
▁continued	-9.51131
ひ	-9.51155
▁worked	-9.51165
out	-9.51167
中国	-9.51196
▁1989	-9.51222
▁1987	-9.514
▁east	-9.51411
chi	-9.5161
道路	-9.51619
都	-9.51672
32	-9.51694
▁free	-9.5177
ドイツ	-9.51807
▁debut	-9.51815
▁Center	-9.51893
▁education	-9.51941
▁half	-9.51995
color	-9.52042
ron	-9.52138
波	-9.52143
▁1983	-9.52158
ci	-9.52163
▁special	-9.5224
管理	-9.52309
▁1992	-9.52427
▁story	-9.52452
▁Texas	-9.52466
▁road	-9.5256
器	-9.52596
だけ	-9.52602
に関する	-9.52607
▁appeared	-9.527
または	-9.528
▁match	-9.52853
キャラクター	-9.52854
ino	-9.52886
▁lead	-9.52896
今	-9.52921
員	-9.52951
▁lost	-9.5297
日の	-9.53073
▁1982	-9.53076
▁coach	-9.53126
通り	-9.53211
▁Christian	-9.53291
いる	-9.53315
▁areas	-9.53319
▁e	-9.5334
▁right	-9.53475
▁project	-9.53479
党	-9.53542
類	-9.53552
▁en	-9.53609
一般	-9.53615
▁considered	-9.53677
▁ex	-9.53838
領	-9.53871
司	-9.53925
▁Am	-9.53933
関	-9.53942
を行う	-9.53949
CD	-9.54022
gi	-9.54035
ね	-9.54081
レン	-9.54098
▁1993	-9.54115
▁African	-9.54126
指定	-9.5427
▁election	-9.54309
▁Charles	-9.54342
▁design	-9.54347
▁White	-9.54396
▁Society	-9.54461
▁described	-9.54519
全国	-9.54526
op	-9.54789
なかった	-9.54808
生活	-9.5484
▁founded	-9.5494
年から	-9.54976
▁Da	-9.55259
▁groups	-9.55278
▁Europe	-9.55283
フランス	-9.55321
mon	-9.55321
▁Peter	-9.55418
字	-9.55507
▁align	-9.55525
▁Ni	-9.55563
tra	-9.55584
親	-9.55593
33	-9.5562
36	-9.55621
戸	-9.55676
機能	-9.55729
港	-9.55744
楽	-9.55777
ze	-9.55927
理	-9.55976
▁similar	-9.56077
び	-9.56165
▁You	-9.56238
▁open	-9.56298
▁2019	-9.56317
ji	-9.56351
時に	-9.56359
▁completed	-9.56397
幸	-9.5643
▁stations	-9.56438
▁days	-9.56439
38	-9.56452
▁rock	-9.5674
▁race	-9.56811
▁Great	-9.56821
連	-9.56894
gen	-9.57034
ell	-9.57054
製	-9.57187
優勝	-9.57193
▁Western	-9.57231
ium	-9.57236
▁Love	-9.57236
つの	-9.57315
center	-9.57348
vi	-9.57373
せ	-9.57396
シャ	-9.57485
ほか	-9.5759
▁2021	-9.57606
▁class	-9.5761
としては	-9.57642
▁1981	-9.57803
とともに	-9.57823
▁level	-9.57834
民	-9.579
▁22	-9.57917
▁events	-9.58049
浜	-9.58089
▁23	-9.58125
後の	-9.58146
▁Russian	-9.58149
▁100	-9.58151
使用	-9.58208
▁1979	-9.58219
▁2020	-9.58257
多くの	-9.58305
▁Some	-9.58317
tor	-9.58318
▁research	-9.58361
運転	-9.58447
▁language	-9.58495
物語	-9.58512
47	-9.58538
▁signed	-9.58538
▁light	-9.58578
カル	-9.58618
mp	-9.58729
オー	-9.58787
34	-9.58835
▁China	-9.5885
ホーム	-9.58851
37	-9.58856
hu	-9.58917
敵	-9.5898
▁official	-9.58982
ology	-9.58992
エル	-9.58992
-1	-9.59197
▁further	-9.59227
▁We	-9.59232
られ	-9.59292
▁developed	-9.59305
鉄	-9.59348
ことを	-9.59356
廃止	-9.59379
▁Central	-9.59476
▁wife	-9.59487
▁playing	-9.59523
調	-9.59626
▁west	-9.59662
ニー	-9.5967
▁go	-9.59677
豊	-9.59688
du	-9.59702
食	-9.59705
父	-9.59748
gu	-9.59762
火	-9.59763
za	-9.59788
▁addition	-9.59797
彦	-9.598
lan	-9.59816
保	-9.5982
人物	-9.59949
超	-9.60021
ay	-9.60174
章	-9.60228
▁common	-9.60249
赤	-9.60293
団	-9.60346
min	-9.6038
▁business	-9.60434
リング	-9.60553
▁Ba	-9.60554
表	-9.60561
場合	-9.60568
▁d	-9.60699
▁himself	-9.60707
反	-9.60712
▁1950	-9.60828
right	-9.60836
ial	-9.6093
京	-9.60939
出版	-9.60968
▁result	-9.61
▁release	-9.61009
▁Ca	-9.61076
▁teams	-9.6115
▁According	-9.61162
▁2022	-9.61167
ことから	-9.61171
▁1976	-9.61277
>	-9.61321
▁1972	-9.61431
39	-9.61448
sk	-9.61537
▁important	-9.61573
量	-9.61628
そして	-9.61638
人間	-9.6166
▁help	-9.61682
当時の	-9.61707
▁formed	-9.61777
夜	-9.61909
▁Ireland	-9.62021
▁Du	-9.62165
▁every	-9.62201
▁services	-9.62276
ファン	-9.62386
wood	-9.62397
区間	-9.62448
協会	-9.62477
があった	-9.62564
したが	-9.62578
ence	-9.62585
▁While	-9.62656
tu	-9.6267
ven	-9.62689
再	-9.628
▁Museum	-9.6286
ベル	-9.62908
▁case	-9.62952
ot	-9.62968
ふ	-9.62975
▁Los	-9.63072
ford	-9.63079
old	-9.63099
▁Department	-9.63141
ward	-9.63154
▁making	-9.63162
七	-9.63184
ists	-9.63222
女子	-9.63368
ゲ	-9.63442
徳	-9.63457
ran	-9.63459
▁black	-9.63563
▁1978	-9.63627
岩	-9.63663
サービス	-9.63681
▁body	-9.63714
pp	-9.63796
▁1974	-9.63823
ヴィ	-9.63887
ow	-9.63901
加	-9.63962
月号	-9.64055
que	-9.6406
世紀	-9.6415
ice	-9.64162
▁|-	-9.64186
ful	-9.642
▁alumni	-9.64203
森	-9.64351
ほど	-9.64357
ach	-9.64435
フィ	-9.64448
▁Richard	-9.64504
よう	-9.64526
命	-9.64557
ヌ	-9.6456
声	-9.64589
年間	-9.64597
説	-9.64658
祭	-9.64714
漫画	-9.64714
デザイン	-9.64787
同じ	-9.64853
▁Early	-9.64904
守	-9.64975
足	-9.65125
樹	-9.65173
紀	-9.6524
職	-9.65279
▁episode	-9.65312
mar	-9.65357
組織	-9.65388
からは	-9.65405
産	-9.65425
▁※	-9.65497
師	-9.65556
00	-9.65637
▁Star	-9.65675
高校	-9.65727
▁contract	-9.65774
質	-9.65796
企業	-9.65839
悪	-9.65897
▁modern	-9.65899
米	-9.65913
とした	-9.65924
▁fire	-9.65931
▁Institute	-9.65973
▁never	-9.65993
ung	-9.66054
▁Pre	-9.66099
以降	-9.66099
忠	-9.66113
担当	-9.66138
▁sold	-9.6631
▁Olympics	-9.66321
リア	-9.66453
▁Mac	-9.66518
こう	-9.66552
▁example	-9.66631
艦	-9.66674
▁vocals	-9.66725
第一	-9.66751
▁Academy	-9.66816
開催	-9.66853
ご	-9.66933
ud	-9.66951
ek	-9.6702
っていた	-9.67023
羽	-9.67214
▁available	-9.67221
劇場	-9.67239
day	-9.67359
▁Grand	-9.67369
▁elected	-9.67392
スポーツ	-9.67422
▁Per	-9.67519
角	-9.6756
ファ	-9.67646
レイ	-9.67669
ho	-9.67682
▁mother	-9.67691
企画	-9.67706
gar	-9.67756
▁“	-9.67756
99	-9.6776
ビー	-9.67824
▁Law	-9.67876
香	-9.67886
ny	-9.67908
▁Spanish	-9.68008
44	-9.68029
状態	-9.68099
ius	-9.68217
▁Lu	-9.68226
アー	-9.68238
▁1975	-9.68311
che	-9.68323
作曲	-9.68325
ating	-9.68432
)4	-9.68433
機関	-9.68467
▁1973	-9.68512
▁1977	-9.68529
大正	-9.68557
▁points	-9.68564
▁0	-9.68567
便	-9.6861
▁Hill	-9.68614
▁event	-9.68619
群	-9.68633
▁appointed	-9.68645
▁Ro	-9.68653
路	-9.6871
▁together	-9.68756
▁office	-9.68772
洋	-9.68844
これ	-9.68888
▁companies	-9.68888
。「	-9.68893
▁although	-9.68905
未	-9.6899
▁Summer	-9.69103
▁working	-9.69117
増	-9.69158
藩	-9.69186
▁Awards	-9.69206
▁across	-9.69267
▁Cha	-9.69312
▁guitar	-9.69351
公園	-9.69357
▁Day	-9.6936
特別	-9.69424
ろ	-9.69466
▁Railway	-9.69468
イギリス	-9.69481
▁Saint	-9.69489
oc	-9.6949
させる	-9.69493
に対する	-9.69517
)」	-9.69599
▁establishments	-9.69815
ガン	-9.69838
熱	-9.69889
ぶ	-9.69935
▁though	-9.70083
列車	-9.70156
off	-9.70205
一部	-9.70295
草	-9.70368
tro	-9.70418
▁social	-9.70465
▁directed	-9.70469
▁1971	-9.70519
龍	-9.70593
▁Super	-9.70653
たち	-9.70655
▁range	-9.707
在	-9.70725
tr	-9.70797
葉	-9.70812
蔵	-9.70825
62	-9.70858
▁me	-9.70865
▁声	-9.70896
園	-9.70943
▁Florida	-9.70976
▁al	-9.70995
とされる	-9.70998
▁current	-9.7105
▁construction	-9.71075
▁once	-9.7108
ビル	-9.71105
well	-9.71131
▁young	-9.71181
▁Zealand	-9.71204
▁Ben	-9.71226
▁away	-9.71364
▁daughter	-9.71422
図	-9.71466
▁Pa	-9.71468
ではなく	-9.71501
▁information	-9.71538
▁1968	-9.71545
43	-9.7157
記録	-9.71633
▁Pan	-9.71688
▁taken	-9.71718
▁Olympic	-9.71749
▁Ja	-9.71757
六	-9.71835
46	-9.71856
▁26	-9.71885
青	-9.71935
フジテレビ	-9.71966
▁Africa	-9.71979
tal	-9.71999
▁Games	-9.72001
42	-9.72011
▁originally	-9.72037
▁less	-9.72094
▁Te	-9.72108
基	-9.72145
非	-9.72169
▁term	-9.72202
▁Un	-9.72205
左	-9.72263
ニュース	-9.72264
▁1969	-9.72348
▁author	-9.72398
▁return	-9.72398
横	-9.72442
選	-9.72507
▁Gu	-9.72544
▁includes	-9.72584
浦	-9.72647
ガー	-9.72689
カン	-9.72713
▁list	-9.7273
▁Can	-9.72876
▁Ga	-9.72931
▁performed	-9.72931
▁新	-9.72976
▁Har	-9.72986
red	-9.73012
編成	-9.73048
運動	-9.73069
▁process	-9.73083
▁Vi	-9.73085
チャ	-9.73182
▁Film	-9.73233
部分	-9.73425
素	-9.73444
ee	-9.73468
▁average	-9.73612
ハイ	-9.73618
ように	-9.73658
▁Education	-9.73691
夏	-9.73733
▁killed	-9.7375
構造	-9.73755
05	-9.73769
端	-9.73775
▁books	-9.73802
▁Chicago	-9.73825
▁president	-9.73848
運行	-9.73881
ization	-9.73901
瀬	-9.73904
一覧	-9.73959
▁does	-9.73976
▁Republic	-9.74063
経済	-9.74116
場所	-9.74277
▁municipality	-9.74287
ことが	-9.74303
異	-9.74342
▁novel	-9.744
58	-9.74407
銀行	-9.74414
▁seven	-9.74533
ルー	-9.7458
II	-9.74583
ite	-9.74617
を受け	-9.74626
タイ	-9.74691
ig	-9.74702
fa	-9.74786
ap	-9.74799
▁footballers	-9.74817
49	-9.74914
▁model	-9.74943
▁anti	-9.74958
感	-9.74986
500	-9.74993
▁Henry	-9.75084
▁others	-9.75119
クラブ	-9.75186
秀	-9.75233
▁Sir	-9.75243
▁Minister	-9.75251
km	-9.75336
自動車	-9.7537
▁followed	-9.75409
▁Smith	-9.75414
といった	-9.75456
砲	-9.75487
▁must	-9.75564
▁27	-9.75573
造	-9.7562
▁months	-9.75623
▁また	-9.75626
75	-9.75697
渡	-9.75735
▁ten	-9.75751
ub	-9.75752
ier	-9.75788
▁w	-9.7584
▁Two	-9.75868
藤	-9.75954
▁brother	-9.75994
▁bar	-9.76017
▁party	-9.76018
▁Is	-9.76032
▁En	-9.76044
▁you	-9.76094
tin	-9.76184
▁we	-9.76205
▁mid	-9.76222
宇宙	-9.76237
▁→	-9.76292
▁Brown	-9.76325
▁space	-9.76326
har	-9.76327
ど	-9.7633
英語	-9.76411
▁Town	-9.76455
越	-9.7646
ft	-9.7653
動	-9.76563
近	-9.76578
神社	-9.76584
▁how	-9.76592
▁Mark	-9.76598
ネット	-9.7664
2000	-9.76674
▁court	-9.76722
変	-9.76818
モン	-9.76862
球	-9.76911
向	-9.76939
▁Life	-9.7697
福	-9.76977
▁should	-9.77023
▁board	-9.77199
方面	-9.77234
▁human	-9.77234
言	-9.77297
pur	-9.77308
▁Sun	-9.77324
▁Radio	-9.7739
以上	-9.77391
ぎ	-9.77444
としての	-9.77489
▁Bi	-9.77508
ning	-9.77603
キー	-9.77639
▁28	-9.77662
代表	-9.77682
▁great	-9.77734
▁Most	-9.77751
FC	-9.77818
▁Ru	-9.77927
▁Force	-9.77929
▁featured	-9.77959
ea	-9.78154
のように	-9.78266
▁features	-9.78273
▁campaign	-9.78315
北海道	-9.78364
速	-9.78381
▁1967	-9.78457
59	-9.78535
ita	-9.78669
に伴い	-9.78673
終了	-9.7872
付	-9.78762
▁Martin	-9.78766
▁eventually	-9.78773
▁Mary	-9.78785
満	-9.78804
十	-9.78889
end	-9.7897
所属	-9.79017
技	-9.7914
ながら	-9.79208
血	-9.79246
エンジン	-9.79249
▁throughout	-9.79277
河	-9.79306
▁seen	-9.79319
▁Chinese	-9.79324
小説	-9.79333
▁Chi	-9.79344
▁Sea	-9.79379
▁g	-9.79528
▁Ver	-9.79529
病	-9.7953
41	-9.79558
ライ	-9.79565
ev	-9.79585
▁1964	-9.79585
▁scored	-9.79607
画	-9.7961
ical	-9.7964
08	-9.79651
▁route	-9.79731
56	-9.79742
all	-9.79776
left	-9.7983
工業	-9.799
京都	-9.79929
▁God	-9.80008
のような	-9.80052
そ	-9.80321
57	-9.80332
fi	-9.8034
▁largest	-9.80341
▁shows	-9.8036
don	-9.80397
経	-9.80431
ff	-9.80455
強	-9.80466
und	-9.80477
源	-9.80509
▁white	-9.80523
▁Jo	-9.80565
ix	-9.80582
▁Ge	-9.80599
生産	-9.806
委員会	-9.80624
▁50	-9.80683
▁performance	-9.80747
▁Although	-9.80781
▁stage	-9.80802
▁finished	-9.80859
berg	-9.8097
▁40	-9.80976
▁1966	-9.80983
▁gave	-9.81056
アイ	-9.8107
han	-9.81087
国家	-9.81087
出場	-9.81121
▁Virginia	-9.81132
能力	-9.81136
ランド	-9.81155
▁Rock	-9.81281
yl	-9.81338
泉	-9.81339
▁Tom	-9.81483
▁base	-9.8159
▁buildings	-9.81639
▁good	-9.81732
BS	-9.81914
▁remained	-9.81972
▁hand	-9.81981
倉	-9.82009
▁Old	-9.82035
qu	-9.82075
▁Official	-9.82112
hi	-9.82157
88	-9.82178
ロン	-9.822
側	-9.82296
テン	-9.82303
ney	-9.82342
出身の人物	-9.82351
バン	-9.82358
▁media	-9.82363
▁Sam	-9.82435
玉	-9.82481
なる	-9.8256
乗	-9.82579
環境	-9.82583
▁1965	-9.82623
像	-9.82708
エン	-9.82725
航空	-9.8273
01	-9.82871
中に	-9.82932
▁replaced	-9.82964
▁night	-9.82976
パー	-9.82982
▁close	-9.8301
ten	-9.83051
科学	-9.83074
夢	-9.83124
▁introduced	-9.83137
uk	-9.83147
佐	-9.83224
界	-9.83294
特	-9.83302
▁battle	-9.83333
85	-9.83338
▁goal	-9.83376
節	-9.83597
解	-9.83608
▁sent	-9.83614
設置	-9.83614
しい	-9.83623
▁edition	-9.83633
原作	-9.83702
mi	-9.83745
調査	-9.83776
▁Sch	-9.83786
ちゃん	-9.83799
65	-9.83831
製作	-9.83925
天皇	-9.83932
06	-9.8394
▁Notes	-9.84014
▁Soviet	-9.84017
port	-9.84039
輪	-9.84063
64	-9.84074
▁Don	-9.84079
ab	-9.84089
her	-9.84146
ものの	-9.84153
コース	-9.84182
文庫	-9.84188
▁forces	-9.84195
年代	-9.84236
▁Irish	-9.84252
マル	-9.84255
▁Public	-9.84299
▁refer	-9.84337
開業	-9.84349
ぐ	-9.84355
られている	-9.84364
ジェ	-9.84412
▁Pennsylvania	-9.84428
湖	-9.84428
共	-9.8448
サー	-9.84497
ata	-9.84511
庁	-9.84553
関連	-9.84628
政治	-9.84708
ker	-9.84715
▁training	-9.84739
のうち	-9.84744
61	-9.84759
▁center	-9.84772
すること	-9.84776
郷	-9.84865
▁Since	-9.8492
▁designed	-9.84926
▁Fe	-9.85006
製造	-9.85024
idae	-9.85079
▁rest	-9.85103
▁aircraft	-9.85114
政府	-9.85118
ities	-9.85127
Re	-9.8516
▁front	-9.85186
53	-9.85235
副	-9.85293
▁Northern	-9.85361
▁college	-9.85375
pi	-9.85496
▁singer	-9.85499
文字	-9.85517
▁either	-9.85565
▁1945	-9.85615
常	-9.85618
▁Italy	-9.85627
of	-9.8565
▁Paris	-9.85687
配	-9.85697
▁$	-9.85708
何	-9.85818
▁leading	-9.85828
ide	-9.85839
弘	-9.85967
▁studio	-9.85991
▁Angeles	-9.86101
86	-9.86135
ep	-9.86137
雪	-9.86187
右	-9.86197
ゼ	-9.862
介	-9.86232
▁Vol	-9.86267
▁Ri	-9.86297
レー	-9.86371
任	-9.86388
▁du	-9.86393
▁Battle	-9.86398
51	-9.86459
▁eight	-9.86523
▁Line	-9.86581
構成	-9.86639
▁involved	-9.86688
板	-9.8673
American	-9.8674
内の	-9.86742
ative	-9.86754
ik	-9.86762
car	-9.86789
▁usually	-9.86898
▁above	-9.8697
若	-9.87013
▁Home	-9.87034
▁get	-9.87067
▁3:	-9.87071
仁	-9.87077
CM	-9.87087
修	-9.87147
▁railway	-9.87157
▁CD	-9.87267
ること	-9.87307
▁private	-9.87361
▁ground	-9.87376
人が	-9.87433
ザー	-9.87494
cy	-9.87506
ez	-9.87563
遠	-9.87575
jo	-9.87598
52	-9.87617
タン	-9.87661
-2	-9.87672
シン	-9.87679
日から	-9.87697
98	-9.87715
í	-9.87765
変更	-9.8779
たい	-9.87796
02	-9.87797
席	-9.87956
sha	-9.87969
▁bg	-9.87981
隆	-9.88078
しない	-9.88132
ries	-9.88144
▁Sal	-9.88152
▁added	-9.88179
▁Wood	-9.88195
back	-9.88289
させた	-9.88332
▁Tu	-9.88333
利用	-9.8835
竜	-9.88351
ions	-9.8837
▁low	-9.88372
▁Women	-9.88417
中の	-9.88419
されて	-9.88446
収録	-9.88497
for	-9.88544
▁ship	-9.88548
!!	-9.88573
秋	-9.8858
の一部	-9.88628
地球	-9.88699
led	-9.88877
契約	-9.88916
▁writer	-9.89036
je	-9.891
09	-9.89159
そう	-9.89187
パン	-9.89226
low	-9.89269
部隊	-9.89296
タイトル	-9.89313
×	-9.8933
▁Service	-9.89331
経営	-9.89349
取り	-9.89397
▁study	-9.89486
スペシャル	-9.8952
ng	-9.89523
▁Wales	-9.89568
▁unit	-9.89638
紙	-9.89646
属	-9.8965
▁Government	-9.89673
▁put	-9.89693
▁basketball	-9.89762
om	-9.89818
▁ISBN	-9.89825
▁29	-9.89875
工場	-9.89921
居	-9.89942
ために	-9.90016
▁Bill	-9.90066
よりも	-9.90091
▁police	-9.90127
▁reported	-9.90129
▁artists	-9.90156
スーパー	-9.90164
計	-9.90217
街	-9.90234
04	-9.90254
させ	-9.90273
コーナー	-9.90309
kin	-9.90336
▁change	-9.90347
▁real	-9.9035
▁attack	-9.90355
5%	-9.90384
od	-9.90422
スタ	-9.90424
階	-9.90448
ator	-9.90467
▁Mc	-9.90484
pt	-9.90541
記念	-9.90559
▁v	-9.90564
ini	-9.9057
▁Arts	-9.90624
学園	-9.90657
▁Second	-9.90688
▁1963	-9.90717
ure	-9.90726
智	-9.90744
上の	-9.90748
のために	-9.90755
帝国	-9.90756
ai	-9.90764
▁awarded	-9.90806
転	-9.9081
gg	-9.90825
ような	-9.90843
宝	-9.9088
極	-9.90948
▁characters	-9.90966
▁Major	-9.90967
現在	-9.9097
▁Of	-9.91001
差	-9.91023
矢	-9.91028
▁Bre	-9.9107
少年	-9.91095
▁upon	-9.91151
ール	-9.91188
07	-9.91198
誌	-9.91271
▁Q	-9.91343
▁culture	-9.91382
ノー	-9.91448
▁science	-9.91545
▁Lord	-9.91592
▁love	-9.91735
温泉	-9.91745
ise	-9.91749
cc	-9.91752
▁1940	-9.91756
we	-9.91797
ヘ	-9.91841
デビュー	-9.91845
対応	-9.91853
ris	-9.91897
送	-9.91904
▁type	-9.91907
▁success	-9.91917
▁Science	-9.91932
▁Si	-9.91969
ライン	-9.92095
▁politician	-9.92132
クロ	-9.92154
▁via	-9.92162
現在は	-9.92162
薬	-9.92184
▁writers	-9.92191
▁Sports	-9.92247
▁saw	-9.92282
▁Joseph	-9.92292
ari	-9.92298
公開	-9.92384
宿	-9.92391
妻	-9.92461
値	-9.92542
▁sports	-9.92561
、2	-9.92583
In	-9.92622
▁section	-9.92623
tion	-9.92624
▁centre	-9.92626
▁river	-9.92651
▁Ke	-9.92668
国道	-9.92743
89	-9.9278
▁Ti	-9.92805
▁Greek	-9.92832
▁manager	-9.92886
▁currently	-9.92941
▁staff	-9.93013
結	-9.93058
▁hit	-9.93149
ライブ	-9.93161
日発売	-9.93186
出身	-9.93205
首	-9.93205
いて	-9.93235
決定	-9.93267
百	-9.93272
▁score	-9.93351
▁1962	-9.9336
tz	-9.93378
54	-9.93389
ped	-9.93444
レース	-9.93513
塩	-9.93592
▁far	-9.93759
▁Dan	-9.93796
qui	-9.93803
格	-9.93805
評価	-9.93876
▁female	-9.93898
▁Series	-9.93923
コー	-9.93949
▁provided	-9.94037
house	-9.94048
友	-9.94119
▁least	-9.94161
装置	-9.94183
竹	-9.94229
段	-9.9424
剣	-9.9425
通信	-9.94257
▁reached	-9.94301
▁changed	-9.94322
裏	-9.94343
-3	-9.94385
になっている	-9.9443
商	-9.94433
▁Films	-9.94433
▁2006,	-9.94449
フェ	-9.9449
陽	-9.94499
▁rights	-9.94574
▁Festival	-9.9464
▁central	-9.94687
▁Port	-9.94723
制度	-9.94745
などが	-9.94799
されており	-9.94842
03	-9.94868
▁writing	-9.94872
▁person	-9.94883
設定	-9.9503
66	-9.95062
nes	-9.95063
破	-9.95097
ight	-9.951
深	-9.95139
▁see	-9.95142
ヴァ	-9.95222
▁東京	-9.95304
▁sea	-9.9531
よく	-9.95323
あり	-9.9538
時の	-9.95393
▁musical	-9.95444
工	-9.95458
を含む	-9.9547
枠	-9.95508
▁Long	-9.95583
家の	-9.95584
▁But	-9.95612
63	-9.95618
▁previous	-9.95676
かった	-9.95724
87	-9.95752
▁("	-9.95762
ther	-9.95763
系統	-9.95766
へと	-9.95775
▁Sha	-9.95793
病院	-9.95807
▁Carolina	-9.95829
ou	-9.95849
ring	-9.95868
時代の	-9.95871
▁data	-9.95874
▁Frank	-9.95903
ロック	-9.95929
▁Ex	-9.95944
▁1930	-9.95963
▁Route	-9.95973
ps	-9.95996
▁Wi	-9.96032
発行	-9.96059
▁winning	-9.9608
ISBN	-9.96086
伊	-9.96142
q	-9.96165
独立	-9.96187
▁Mexico	-9.96218
学者	-9.9627
建設	-9.96289
ハン	-9.96317
83	-9.9633
ことで	-9.96332
▁Bank	-9.96345
)3	-9.96378
over	-9.96405
town	-9.96429
▁able	-9.9644
200	-9.96482
歴史	-9.96485
郎	-9.96508
tes	-9.96546
者の	-9.96558
ると	-9.96563
ara	-9.9657
断	-9.96573
主に	-9.96626
設計	-9.96631
能	-9.96641
映像	-9.96686
助	-9.96733
ping	-9.96736
▁2,	-9.96781
▁shot	-9.96881
bar	-9.96915
▁start	-9.96931
▁outside	-9.96956
▁closed	-9.96997
▁Cross	-9.97019
湯	-9.97019
▁Scottish	-9.9705
▁Louis	-9.97109
yn	-9.97141
九州	-9.97148
▁competition	-9.97182
▁market	-9.97186
▁action	-9.97294
▁31	-9.97333
ジョン	-9.97333
データ	-9.97345
においては	-9.97407
ified	-9.97423
▁lower	-9.97424
残	-9.97434
cha	-9.97487
産業	-9.97591
層	-9.97601
▁Par	-9.97622
自然	-9.97673
▁network	-9.97743
ens	-9.97881
▁2007,	-9.97943
▁Navy	-9.97948
▁ca	-9.9795
前に	-9.97966
can	-9.97967
国の	-9.98006
des	-9.98012
学科	-9.98018
lic	-9.98039
▁producer	-9.9804
▁countries	-9.98055
走	-9.98097
▁Congress	-9.98114
以下	-9.98265
▁1961	-9.98394
代目	-9.98418
健	-9.98534
博	-9.9859
営業	-9.98594
sky	-9.9867
▁sp	-9.98671
バンド	-9.98703
ding	-9.98725
初めて	-9.98746
ph	-9.98752
300	-9.98805
▁health	-9.98828
67	-9.98897
俳優	-9.989
▁Team	-9.98992
▁fourth	-9.99017
▁FC	-9.99062
▁Mu	-9.99069
▁Big	-9.99127
lu	-9.99151
si	-9.99161
片	-9.99208
族	-9.99265
魔	-9.99281
結果	-9.99284
▁tournament	-9.99289
初代	-9.99358
▁primary	-9.99368
row	-9.99378
▁commercial	-9.99387
▁Track	-9.99403
▁Fa	-9.99423
末	-9.99461
▁Lee	-9.99492
▁park	-9.99538
ホール	-9.99546
敗	-9.99589
と同じ	-9.996
取	-9.99641
82	-9.99728
▁artist	-9.99766
参加	-9.99795
▁Cor	-9.99862
▁provide	-9.99877
サイ	-9.99884
▁1948	-9.99973
▁actor	-9.99979
text	-9.99994
▁+	-10.0001
廃	-10.0003
▁instead	-10.0003
ユ	-10.0004
客	-10.0006
val	-10.0006
恵	-10.0011
共同	-10.0013
unt	-10.0014
▁strong	-10.0022
▁red	-10.0028
試験	-10.0029
に変更	-10.0029
打	-10.003
OS	-10.003
奥	-10.0035
翌	-10.0036
▁decided	-10.0037
▁birth	-10.0038
▁southern	-10.0039
鳥	-10.0039
▁Blue	-10.0041
大きな	-10.0044
ü	-10.0045
La	-10.0046
▁Under	-10.0048
などを	-10.005
▁Van	-10.0052
▁Live	-10.0055
based	-10.0057
#	-10.0061
▁plant	-10.0064
であるが	-10.0073
▁Valley	-10.0081
ani	-10.0082
税	-10.0087
▁Jersey	-10.0095
のち	-10.0096
▁placed	-10.0103
第二	-10.0104
▁gold	-10.0105
MA	-10.0107
▁Tour	-10.0109
シングル	-10.011
▁whose	-10.0112
▁Jack	-10.0115
av	-10.0116
▁1944	-10.012
▁successful	-10.0121
ヨーロッパ	-10.0123
“	-10.0123
▁come	-10.0124
団体	-10.0126
sch	-10.0134
▁tour	-10.0135
▁Jewish	-10.0141
ヨ	-10.0144
–18	-10.0148
ric	-10.0157
▁summer	-10.0157
mb	-10.016
▁brought	-10.0163
▁And	-10.0167
with	-10.0168
研究所	-10.017
ッツ	-10.0172
主義	-10.0174
▁natural	-10.0178
それぞれ	-10.018
トリ	-10.0183
再び	-10.0184
ダム	-10.0185
喜	-10.0186
▁1959	-10.0186
▁results	-10.0191
ーン	-10.0192
比	-10.0193
しか	-10.0194
▁Later	-10.0199
FM	-10.0201
▁northern	-10.0205
池	-10.0207
▁Ohio	-10.0212
77	-10.0215
最高	-10.0215
▁inter	-10.0216
97	-10.0217
▁magazine	-10.0221
▁association	-10.0222
込み	-10.0222
等の	-10.0224
ola	-10.023
急	-10.0234
になり	-10.0235
eg	-10.0236
iz	-10.0237
諸	-10.0238
形式	-10.0242
vin	-10.0243
▁Mi	-10.0245
▁attended	-10.0245
方式	-10.0248
▁rather	-10.0248
九	-10.0249
也	-10.0249
▁Tri	-10.0251
ックス	-10.0253
▁singles	-10.0256
観	-10.0258
設立	-10.026
▁Pat	-10.026
▁Gar	-10.0263
▁goals	-10.0265
味	-10.0266
そのため	-10.0266
などで	-10.0272
▁states	-10.0277
留	-10.0282
▁Empire	-10.0284
gan	-10.0285
MS	-10.0286
岸	-10.0294
ジュ	-10.0298
意	-10.03
周	-10.03
撮影	-10.0302
king	-10.0303
▁Land	-10.0312
▁organization	-10.0319
キング	-10.0323
率	-10.0324
res	-10.0326
の大	-10.0326
▁Dutch	-10.0333
▁almost	-10.0337
戦闘	-10.0339
▁additional	-10.0345
▁runs	-10.0345
▁sister	-10.0347
▁Young	-10.0349
▁なお	-10.0359
合併	-10.0365
表示	-10.0368
fer	-10.037
our	-10.0372
▁Che	-10.0375
▁Times	-10.0377
▁stated	-10.038
▁Director	-10.0381
▁Southern	-10.0387
工事	-10.0389
▁1956	-10.0393
▁Bu	-10.0394
▁capital	-10.0398
▁Committee	-10.0401
tan	-10.0403
air	-10.0406
低	-10.0411
▁structure	-10.0411
遊	-10.0413
ura	-10.0413
運営	-10.0413
君	-10.0416
shi	-10.0423
当初は	-10.0423
▁previously	-10.0428
方法	-10.0439
▁economic	-10.0439
ブル	-10.044
su	-10.044
▁Career	-10.0445
海軍	-10.0448
▁my	-10.0453
head	-10.0454
▁beginning	-10.0454
落	-10.0456
▁trade	-10.0462
雲	-10.0463
』『	-10.0468
▁units	-10.0469
▁1955	-10.048
作家	-10.048
AT	-10.0482
野球	-10.0483
▁Theatre	-10.0485
ren	-10.0486
私	-10.0489
▁III	-10.049
富	-10.0492
▁division	-10.0493
▁1920	-10.0497
空港	-10.0499
マイ	-10.0501
ダン	-10.0503
付け	-10.0503
ray	-10.0505
▁fact	-10.0505
2004	-10.0505
望	-10.0507
▁Gold	-10.0507
▁Ch	-10.0514
▁parts	-10.0518
▁sound	-10.0519
▁Civil	-10.0524
▁force	-10.0524
▁owned	-10.0524
韓国	-10.0526
iv	-10.0531
奈	-10.0531
栄	-10.0533
華	-10.0536
▁degree	-10.0537
国民	-10.0537
協力	-10.0542
〉)	-10.0543
▁operations	-10.0548
▁1958	-10.0549
陣	-10.0555
▁label	-10.0556
▁reading	-10.0556
事故	-10.0567
を行った	-10.0571
桜	-10.0573
茶	-10.0574
貴	-10.0576
▁cast	-10.0583
恋	-10.0585
効果	-10.0587
俊	-10.0587
76	-10.059
〉	-10.0593
▁Little	-10.0597
交	-10.0602
▁itself	-10.0603
84	-10.0605
▁Television	-10.0605
yard	-10.0608
柳	-10.061
▁ア	-10.0612
▁defeated	-10.0613
▁Following	-10.0614
ious	-10.0616
cre	-10.0619
ological	-10.0626
運用	-10.0627
▁island	-10.0628
▁cover	-10.0638
の中で	-10.0638
▁Book	-10.0639
▁2023	-10.0642
酒	-10.0642
(1	-10.0645
PS	-10.0646
▁regular	-10.0648
▁behind	-10.0651
▁Time	-10.0651
著	-10.0654
▁movement	-10.0662
72	-10.0671
▁Top	-10.0674
ほ	-10.068
▁possible	-10.0681
▁collection	-10.0683
ゆ	-10.0686
▁Spain	-10.0688
▁Championships	-10.0688
退	-10.0688
好	-10.069
▁interest	-10.0694
nt	-10.0698
▁hockey	-10.07
▁この	-10.0707
できない	-10.0713
演奏	-10.0713
銀	-10.0715
▁Middle	-10.0717
のある	-10.0722
交差点	-10.0724
No	-10.0724
▁Col	-10.0726
▁Board	-10.0726
▁access	-10.0728
▁turn	-10.0728
絵	-10.0731
▁multi	-10.0736
▁Station	-10.0737
mann	-10.0744
ena	-10.0749
wi	-10.0749
so	-10.0753
軽	-10.0759
番号	-10.0759
ize	-10.076
これを	-10.076
アナウンサー	-10.0761
会議	-10.0762
ella	-10.0762
倒	-10.0764
ku	-10.0764
男性	-10.0764
兄	-10.0764
であったが	-10.0766
▁whom	-10.0767
帝	-10.0768
hy	-10.077
▁past	-10.0775
▁places	-10.0779
ではない	-10.0782
存在	-10.0785
▁ever	-10.0795
支援	-10.0796
勝利	-10.0801
istic	-10.0809
イベント	-10.081
線の	-10.0814
ath	-10.0814
73	-10.0816
メンバー	-10.0821
登場	-10.0821
入り	-10.0821
トラ	-10.0824
▁1957	-10.0825
▁decision	-10.0826
ag	-10.0829
74	-10.0829
▁soon	-10.0833
TA	-10.084
現代	-10.0847
▁student	-10.0849
ile	-10.0854
優	-10.0854
インド	-10.0855
▁1947	-10.0861
農	-10.0861
殺	-10.0863
92	-10.0866
▁active	-10.0866
▁Scotland	-10.0872
▁l	-10.0881
▁小	-10.0883
og	-10.0883
▁child	-10.0883
あるいは	-10.0884
額	-10.089
人気	-10.0895
市の	-10.0896
行動	-10.0904
表記	-10.0905
▁That	-10.0906
▁Research	-10.0908
(『	-10.0914
net	-10.0916
までの	-10.0917
ors	-10.0918
ö	-10.0919
▁independent	-10.0921
▁Prince	-10.0922
▁leader	-10.0922
ef	-10.0926
行き	-10.0926
なく	-10.0928
を受けた	-10.0929
オン	-10.094
▁appearance	-10.0941
▁Edward	-10.0944
▁Mel	-10.0947
防	-10.0951
tri	-10.0953
▁Fort	-10.0953
状況	-10.0958
ett	-10.0962
qua	-10.0966
康	-10.0967
予定	-10.097
日本テレビ	-10.0971
▁Russia	-10.0972
霊	-10.0977
era	-10.0982
中継	-10.0983
▁living	-10.0983
▁Mer	-10.0983
▁Night	-10.0984
▁Georgia	-10.0985
▁ended	-10.0989
▁Province	-10.0991
一郎	-10.0994
オリジナル	-10.0995
▁1954	-10.0997
案	-10.0998
フリー	-10.1001
▁listed	-10.1009
初の	-10.101
ken	-10.1011
(+	-10.1013
▁higher	-10.1015
▁2008,	-10.1016
68	-10.1017
ations	-10.1017
▁Game	-10.1018
▁union	-10.1026
以下の	-10.1031
▁deal	-10.1032
様々な	-10.1032
[	-10.1034
▁allowed	-10.1035
71	-10.1044
とし	-10.1052
war	-10.1055
移動	-10.1064
連続	-10.1066
▁individual	-10.1068
装	-10.1068
▁Ad	-10.1069
える	-10.107
▁industry	-10.1074
帯	-10.1083
ip	-10.1085
仏	-10.1086
▁systems	-10.1088
▁seasons	-10.1091
▁Jones	-10.1093
94	-10.1094
▁Post	-10.11
表現	-10.1107
レス	-10.1113
ane	-10.1118
▁Mr	-10.1119
スタジオ	-10.112
これらの	-10.1123
78	-10.1124
毛	-10.1126
報	-10.1128
▁broadcast	-10.1129
▁1952	-10.1132
▁Ju	-10.1134
▁bass	-10.1134
▁double	-10.1137
sta	-10.1137
▁Bridge	-10.1142
駅前	-10.115
▁Its	-10.1151
務	-10.1154
cus	-10.1154
ところ	-10.1156
▁Illinois	-10.1159
ä	-10.1161
▁location	-10.118
言語	-10.1181
▁Columbia	-10.1181
鬼	-10.1183
tain	-10.1184
▁future	-10.1185
81	-10.1186
ダイ	-10.1187
ニュー	-10.1188
丁目	-10.1189
▁Out	-10.1194
▁little	-10.1196
ことがある	-10.1198
ワン	-10.1202
店舗	-10.1202
していたが	-10.1204
par	-10.1205
▁Water	-10.1205
▁Many	-10.1206
女優	-10.122
zo	-10.1221
▁length	-10.1223
▁1942	-10.1225
▁Mor	-10.1227
トロ	-10.1228
向け	-10.1235
部門	-10.1235
枚	-10.1245
沼	-10.1248
▁plan	-10.1252
製品	-10.1257
】	-10.1257
ジー	-10.1259
学生	-10.1268
▁Er	-10.1273
▁Part	-10.1286
頼	-10.1289
▁1949	-10.1292
アップ	-10.1293
▁traditional	-10.1299
▁opening	-10.1302
▁find	-10.1303
96	-10.1304
▁1943	-10.1305
ō	-10.1305
▁1946	-10.1314
本線	-10.1315
発表	-10.1317
ハー	-10.1319
仕	-10.1321
フル	-10.1321
ano	-10.1325
▁entire	-10.1326
社長	-10.1331
早	-10.1332
▁food	-10.1336
▁means	-10.1337
▁significant	-10.1337
。『	-10.1338
を経て	-10.134
デン	-10.134
▁4:	-10.134
▁spent	-10.1343
ロシア	-10.1345
▁Michigan	-10.1346
▁Yu	-10.1349
クラス	-10.1352
▁too	-10.1353
▁Band	-10.1358
▁contains	-10.1362
べ	-10.1364
接	-10.1366
▁met	-10.1368
専用	-10.137
▁Ed	-10.1379
▁hard	-10.1382
ick	-10.1384
▁size	-10.1384
▁especially	-10.1385
▁Bur	-10.1386
▁Sp	-10.1388
▁k	-10.1391
▁wide	-10.1392
▁Parliament	-10.1394
De	-10.1395
▁move	-10.1396
▁legal	-10.1399
▁Military	-10.1407
▁complex	-10.1407
電子	-10.1411
ざ	-10.1413
95	-10.1417
▁practice	-10.1421
短	-10.1423
布	-10.1428
管	-10.1433
▁3,	-10.1435
考え	-10.1436
タイム	-10.144
2006	-10.1441
š	-10.1446
どう	-10.1449
▁Chief	-10.1451
2007	-10.1454
zi	-10.1455
▁Song	-10.1456
ニア	-10.1461
メーカー	-10.1464
ski	-10.1466
▁king	-10.1468
▁victory	-10.147
93	-10.147
RO	-10.1472
順	-10.1472
バル	-10.1477
一方	-10.1488
ica	-10.1489
細	-10.1494
犬	-10.1496
写真	-10.1497
▁self	-10.1497
則	-10.1498
ドル	-10.1499
様	-10.1501
!」	-10.1501
▁bi	-10.1503
if	-10.1503
兼	-10.1508
堀	-10.1513
")	-10.1515
▁Queen	-10.1515
▁standard	-10.1518
ria	-10.1523
が多い	-10.1525
▁1953	-10.1529
▁Eastern	-10.1533
▁sometimes	-10.1534
▁Min	-10.1536
警察	-10.1536
刑事	-10.1536
善	-10.1537
▁taking	-10.1538
▁according	-10.1541
Ma	-10.1542
以来	-10.1544
▁(17	-10.1545
服	-10.1552
出し	-10.1554
ブラ	-10.1555
▁Ya	-10.1556
ual	-10.1561
東京都	-10.1563
(*	-10.1564
▁2009,	-10.1567
子の	-10.1572
▁increase	-10.1578
▁1951	-10.1579
▁seat	-10.1582
バイ	-10.1584
受	-10.1584
aw	-10.1584
▁money	-10.1587
▁Joe	-10.1595
切	-10.1595
輸送	-10.1596
▁towards	-10.1599
▁thought	-10.1601
▁highest	-10.1602
視	-10.1604
月から	-10.1605
▁ran	-10.1605
bu	-10.1609
▁Ku	-10.1612
とき	-10.1617
▁hospital	-10.1617
▁1941	-10.163
▁approximately	-10.1632
縁	-10.1633
、1	-10.1636
だったが	-10.1637
▁running	-10.1638
こともある	-10.1642
my	-10.1643
van	-10.1647
SA	-10.165
作戦	-10.1651
▁Boston	-10.1656
▁Britain	-10.1656
学部	-10.1656
tter	-10.1657
2003	-10.1659
(2005	-10.166
自分	-10.166
▁〜	-10.1662
最終	-10.1663
aka	-10.1663
メン	-10.1671
▁command	-10.1672
▁Scott	-10.1673
▁operated	-10.1677
▁woman	-10.1681
▁format	-10.1685
府	-10.1687
▁generally	-10.1691
▁lived	-10.1694
日には	-10.1697
lon	-10.1699
▁Ban	-10.17
▁Gi	-10.1703
にかけて	-10.1705
▁required	-10.1709
ire	-10.171
91	-10.1711
の歴史	-10.1711
69	-10.1718
バック	-10.1718
営業所	-10.172
用の	-10.1723
裕	-10.1734
lar	-10.1734
▁certain	-10.1741
hr	-10.1742
術	-10.1744
▁create	-10.1751
▁senior	-10.1752
▁Ram	-10.1758
▁date	-10.1759
wing	-10.1759
rie	-10.176
最後の	-10.1769
▁thus	-10.177
テレビ朝日	-10.177
▁#	-10.1774
▁Far	-10.1778
BA	-10.1783
▁cut	-10.1784
▁Bra	-10.1784
▁earlier	-10.1786
ised	-10.1787
▁Final	-10.179
▁Over	-10.1794
▁rate	-10.1795
公式	-10.1799
illa	-10.1799
姿	-10.1801
Le	-10.1804
ケン	-10.1806
ものである	-10.1808
▁voice	-10.1811
▁西	-10.1813
▁vi	-10.1815
▁test	-10.1819
▁army	-10.182
芸術	-10.1823
▁championship	-10.1824
顔	-10.1825
▁Special	-10.1827
▁Inc	-10.1827
▁Ph	-10.1833
ette	-10.1835
▁Avenue	-10.1838
姫	-10.1838
▁complete	-10.1839
▁course	-10.1843
列	-10.1846
▁award	-10.1847
ram	-10.1851
引	-10.1854
▁material	-10.1855
▁related	-10.186
最	-10.1864
会長	-10.1865
▁Cat	-10.1867
▁appearances	-10.1867
ade	-10.1868
ぼ	-10.187
▁numerous	-10.187
ose	-10.1877
魚	-10.1877
にあった	-10.1877
▁Good	-10.1878
▁surface	-10.1884
かつて	-10.1884
len	-10.1886
79	-10.1886
期間	-10.1889
▁三	-10.1892
▁semi	-10.1894
キン	-10.19
▁nine	-10.19
let	-10.1901
国内	-10.1906
▁chief	-10.1908
▁Show	-10.1908
整備	-10.191
▁week	-10.191
▁東	-10.1913
RE	-10.1916
以外の	-10.1918
▁Power	-10.1918
歌手	-10.192
サッカー	-10.1921
▁Field	-10.1926
);	-10.1927
▁Open	-10.1927
アジア	-10.1931
ジョ	-10.1933
内容	-10.1935
▁Dis	-10.1935
▁footballer	-10.1941
▁listing	-10.1942
▁Highway	-10.1947
tel	-10.1951
▁actors	-10.1954
▁1.	-10.1958
雅	-10.196
ification	-10.196
▁Ve	-10.1961
▁clubs	-10.1961
住	-10.1967
の一	-10.1968
」、「	-10.197
▁Wa	-10.1971
要	-10.1974
江戸	-10.1975
距離	-10.1983
▁famous	-10.1984
▁appears	-10.1984
▁retired	-10.1991
参	-10.1992
(2007	-10.1993
▁...	-10.1998
ので	-10.1998
密	-10.2002
イタリア	-10.201
▁Up	-10.2013
延	-10.2013
れば	-10.2015
阿	-10.2015
▁interview	-10.2016
ei	-10.2016
▁Sub	-10.2028
孝	-10.203
▁cross	-10.2035
高い	-10.2036
SE	-10.2043
ッシュ	-10.2046
-4	-10.2046
横浜	-10.2046
営	-10.2047
cal	-10.2047
▁Ab	-10.2048
改造	-10.2049
跡	-10.2051
公演	-10.206
限定	-10.206
▁lack	-10.2061
ec	-10.2065
登録	-10.2067
▁tracks	-10.2075
ベスト	-10.2075
AL	-10.2077
▁call	-10.208
個人	-10.2081
ホテル	-10.2084
▁issues	-10.2085
2011	-10.209
▁associated	-10.2093
使	-10.2095
tre	-10.2096
▁If	-10.2096
状	-10.2098
▁(1	-10.2104
▁Asia	-10.2105
xi	-10.2111
▁mostly	-10.2112
プロデューサー	-10.2114
万円	-10.2115
礼	-10.2115
▁names	-10.2115
▁programs	-10.2118
新聞	-10.2118
language	-10.2119
▁Tra	-10.2123
勢	-10.2123
▁Commission	-10.2126
ガス	-10.2132
▁becoming	-10.2133
▁BBC	-10.2134
▁2010,	-10.2138
頃	-10.2138
US	-10.2144
▁Historic	-10.2146
老	-10.2153
ビデオ	-10.2154
▁Francisco	-10.2157
興	-10.2157
場合は	-10.216
んで	-10.2163
ue	-10.2166
塚	-10.2168
▁Members	-10.2168
▁Their	-10.217
▁News	-10.2171
form	-10.2171
▁religious	-10.2172
▁matches	-10.2173
art	-10.2174
light	-10.2174
提供	-10.2178
▁recording	-10.218
▁need	-10.2183
彼の	-10.2183
大型	-10.2186
事務所	-10.2187
RA	-10.2188
ula	-10.2195
▁drama	-10.2196
St	-10.2196
tern	-10.2198
▁western	-10.22
▁Governor	-10.2204
甲	-10.2205
オリンピック	-10.2207
関西	-10.2208
▁activities	-10.2211
子供	-10.2211
▁Mon	-10.2214
としている	-10.2215
放	-10.2217
文学	-10.2221
最大	-10.2223
▁uses	-10.2225
▁feature	-10.2227
▁Williams	-10.2227
料理	-10.2228
cm	-10.223
キャ	-10.223
▁Coast	-10.2235
卒業	-10.2238
最初の	-10.2239
2001	-10.2249
ving	-10.2249
2005	-10.2251
雨	-10.2251
連載	-10.2252
ライト	-10.2253
▁pay	-10.2255
▁subject	-10.2258
保護	-10.2261
▁Jean	-10.2262
now	-10.2263
家族	-10.2266
月には	-10.2266
▁studies	-10.2266
▁review	-10.2266
減	-10.2267
ever	-10.2273
単	-10.2273
▁officer	-10.2278
▁Centre	-10.228
▁editor	-10.2282
▁baseball	-10.2283
具	-10.2289
積	-10.2296
ろう	-10.2301
▁Pu	-10.2305
最も	-10.2306
生まれ	-10.231
▁minor	-10.2314
なら	-10.2316
▁remains	-10.2318
純	-10.2319
ase	-10.2326
拡大	-10.2331
の人物	-10.2332
王国	-10.2332
核	-10.2336
▁Family	-10.234
▁Further	-10.2341
ヴ	-10.2348
400	-10.2349
紹介	-10.2349
▁property	-10.2353
澤	-10.2357
亜	-10.2358
メイン	-10.2361
▁4,	-10.2365
骨	-10.2366
後は	-10.2369
項	-10.237
▁Conference	-10.2371
雑誌	-10.2373
▁status	-10.2373
業務	-10.2377
壁	-10.2379
▁loss	-10.2386
美術	-10.2389
▁influence	-10.2393
陸軍	-10.2395
娘	-10.2399
メディア	-10.2402
600	-10.2402
▁limited	-10.2405
大統領	-10.2406
▁Ser	-10.2406
ッチ	-10.2407
▁mis	-10.2412
▁USA	-10.2412
▁Three	-10.2416
完成	-10.2416
かつ	-10.2417
mor	-10.2417
▁Medal	-10.2418
動物	-10.2418
▁direct	-10.242
▁2011,	-10.2428
▁Bob	-10.2428
に対し	-10.243
ウス	-10.2431
▁del	-10.2431
uff	-10.2432
関東	-10.244
政策	-10.2443
陸	-10.2444
top	-10.2446
直接	-10.2447
▁better	-10.2449
ore	-10.2454
▁Library	-10.2457
▁caused	-10.2458
自分の	-10.2459
▁Oxford	-10.2459
▁お	-10.2461
▁Mus	-10.2464
ok	-10.2464
▁Massachusetts	-10.2468
トップ	-10.2469
▁Pacific	-10.247
▁noted	-10.2471
▁give	-10.2473
▁Ki	-10.2481
ER	-10.2481
▁increased	-10.2481
▁issue	-10.2482
▁face	-10.2486
▁prior	-10.2488
▁travel	-10.2488
持ち	-10.2488
▁multiple	-10.2492
ップ	-10.2493
アメリカ合衆国	-10.2497
▁word	-10.2499
▁expatriate	-10.2502
use	-10.2503
前の	-10.2504
離	-10.2507
者は	-10.251
▁1939	-10.2512
▁relationship	-10.2514
800	-10.2514
料	-10.2519
▁Jan	-10.2521
▁management	-10.2522
▁already	-10.2522
ns	-10.2526
典	-10.2528
為	-10.2528
▁Pi	-10.2529
▁Polish	-10.2531
電気	-10.2534
▁changes	-10.2536
大臣	-10.2537
cing	-10.254
▁separate	-10.254
burg	-10.255
▁medal	-10.2553
▁border	-10.2553
歩	-10.2563
▁engineer	-10.2564
CC	-10.2566
▁Mike	-10.2571
▁launched	-10.2574
東映	-10.2579
▁Es	-10.2584
商品	-10.2585
▁towns	-10.2588
▁Baseball	-10.2589
▁highway	-10.2592
圧	-10.2592
▁Op	-10.2593
延長	-10.2597
▁coast	-10.2598
▁train	-10.2604
▁computer	-10.2617
cher	-10.2617
乱	-10.2627
辺	-10.2628
の一つ	-10.2629
▁evidence	-10.2639
なし	-10.2643
必要	-10.2646
▁Republican	-10.2646
▁Airport	-10.2647
▁cost	-10.2647
cho	-10.2647
仲	-10.265
オープン	-10.2651
▁room	-10.2651
を中心に	-10.2659
▁county	-10.2661
▁Mad	-10.2661
基本	-10.2662
nu	-10.2663
▁Marine	-10.2668
▁forced	-10.2669
▁engine	-10.2669
▁majority	-10.267
▁et	-10.2674
▁Creek	-10.2674
▁represented	-10.2675
▁historical	-10.2676
nie	-10.2677
▁Israel	-10.2678
▁annual	-10.268
旅	-10.2686
PC	-10.269
more	-10.2691
ear	-10.2692
オブ	-10.2695
▁initially	-10.2697
▁shown	-10.2699
EC	-10.2703
tar	-10.2705
自由	-10.2706
▁Books	-10.2712
▁view	-10.2713
内に	-10.2713
名古屋	-10.2714
▁Fo	-10.2719
ステージ	-10.2721
▁leaving	-10.2722
指	-10.2724
まる	-10.2727
人口	-10.2731
vis	-10.2732
▁Jim	-10.2732
IS	-10.2732
ます	-10.2735
▁Ber	-10.2737
を参照	-10.2741
はない	-10.2741
クリ	-10.2743
ero	-10.2744
☆	-10.2744
ada	-10.2746
▁Je	-10.2748
▁imp	-10.2749
2012	-10.275
ax	-10.2751
失	-10.2751
特急	-10.2753
act	-10.2755
lie	-10.2756
(2	-10.2758
▁Jr	-10.2759
(2008	-10.2762
間の	-10.2765
▁Foundation	-10.2765
▁serving	-10.2767
したり	-10.2767
広島	-10.2774
名は	-10.2776
クス	-10.2777
▁takes	-10.278
房	-10.2781
like	-10.2781
クラ	-10.2784
自身の	-10.2789
SI	-10.2795
▁Latin	-10.2797
bb	-10.2803
するが	-10.2807
stone	-10.2809
▁Cal	-10.2809
▁bridge	-10.281
セル	-10.2817
▁Video	-10.2819
伝説	-10.2821
ブルー	-10.2825
年まで	-10.2829
▁Health	-10.283
▁terms	-10.2834
ション	-10.2834
本社	-10.2835
▁department	-10.284
本部	-10.284
▁ma	-10.284
▁university	-10.2843
▁Inter	-10.2849
▁Mal	-10.285
初期	-10.285
▁fight	-10.2851
▁care	-10.2851
トル	-10.2852
専門	-10.2853
▁Bell	-10.2854
▁Johnson	-10.2857
▁entered	-10.2859
▁se	-10.2865
のための	-10.2866
普通	-10.2869
市民	-10.2872
演出	-10.2872
▁selected	-10.2874
おり	-10.2874
fo	-10.2875
▁blue	-10.2884
1%	-10.2886
▁port	-10.2888
var	-10.2891
可能	-10.2895
*	-10.2898
者が	-10.2906
建	-10.2907
ミニ	-10.2908
▁below	-10.2912
2008	-10.2913
▁going	-10.2916
SP	-10.2917
▁records	-10.2918
従	-10.2924
▁friend	-10.2929
を見	-10.2931
げ	-10.2934
行為	-10.2935
▁Free	-10.2937
ill	-10.294
://	-10.2941
law	-10.2943
▁Andrew	-10.2947
▁key	-10.2947
▁personal	-10.2949
書き	-10.295
シーン	-10.2951
立ち	-10.2952
個	-10.2952
▁longer	-10.2952
セン	-10.2953
観光	-10.2955
条件	-10.2957
以上の	-10.296
▁federal	-10.296
の鉄道駅	-10.2965
舞	-10.2967
▁financial	-10.2969
3%	-10.2972
▁NY	-10.2974
▁account	-10.2974
–1	-10.2975
ible	-10.2975
▁Democratic	-10.298
▁movie	-10.2982
▁meaning	-10.2986
ā	-10.2988
▁Development	-10.2991
▁Songs	-10.2993
展開	-10.2994
政権	-10.2994
▁report	-10.2997
ob	-10.2999
▁Kar	-10.3001
高速	-10.301
▁stop	-10.301
ct	-10.3015
児	-10.3015
異なる	-10.3016
建築	-10.3017
そのまま	-10.3023
するため	-10.3025
▁Bishop	-10.3027
▁murder	-10.3028
グラ	-10.303
駅間	-10.3031
▁chart	-10.3031
逆	-10.3032
DS	-10.3037
not	-10.3037
▁marriage	-10.3039
銃	-10.304
日本語	-10.3042
トゥ	-10.3043
▁t	-10.3045
▁Journal	-10.305
張	-10.3053
カップ	-10.3056
弁	-10.3061
▁2012,	-10.3066
dia	-10.3066
化学	-10.3066
ディー	-10.3068
カラー	-10.3076
(2009	-10.3078
せず	-10.308
lam	-10.308
▁para	-10.3082
uc	-10.3085
腕	-10.3086
▁native	-10.3091
▁speed	-10.3093
ans	-10.3096
ソフト	-10.3096
炎	-10.3101
▁referred	-10.3102
▁subsequently	-10.3104
AA	-10.3106
▁Dar	-10.3106
▁Ten	-10.311
▁Alexander	-10.3113
上で	-10.3115
▁ice	-10.3115
ability	-10.3115
鶴	-10.3116
▁larger	-10.312
▁Biography	-10.3121
▁Office	-10.3127
2010	-10.3127
輝	-10.3128
▁Winter	-10.3128
▁structures	-10.3131
▁response	-10.3132
富士	-10.3138
配信	-10.3141
▁passed	-10.3141
An	-10.3142
▁assistant	-10.3144
編曲	-10.3147
(2004	-10.3148
冬	-10.3155
▁metal	-10.3158
難	-10.316
ó	-10.3162
AC	-10.3167
▁Philadelphia	-10.3173
が多く	-10.3174
bra	-10.3177
令	-10.3178
多く	-10.318
リスト	-10.3181
2002	-10.3186
実施	-10.3187
▁Os	-10.3191
set	-10.3193
▁here	-10.3194
▁Chris	-10.3198
倍	-10.3199
SU	-10.32
少女	-10.3201
セット	-10.3202
▁code	-10.3211
収	-10.3212
レギュラー	-10.3214
bal	-10.3218
景	-10.3218
▁brand	-10.3219
茂	-10.3221
生徒	-10.3222
▁Assembly	-10.3223
名前	-10.3226
▁lines	-10.3231
▁eastern	-10.3231
▁Personal	-10.3232
2%	-10.3233
▁executive	-10.3235
ese	-10.3236
したため	-10.3238
ウィ	-10.3239
ユー	-10.3239
ント	-10.324
rum	-10.3245
bert	-10.3246
▁Corps	-10.3248
▁Ontario	-10.3249
通常	-10.3253
▁Sydney	-10.3254
▁cases	-10.326
するなど	-10.326
-5	-10.3261
▁2:	-10.3263
▁personnel	-10.3269
IN	-10.3273
(2006	-10.3275
教授	-10.3276
7%	-10.3278
▁foreign	-10.3287
▁Cre	-10.3287
ign	-10.3287
程度	-10.329
プラ	-10.3291
ブランド	-10.3292
酸	-10.3294
ボール	-10.3297
▁Will	-10.3298
ctor	-10.3298
改	-10.3299
自ら	-10.3301
▁middle	-10.3305
ON	-10.3307
▁civil	-10.3308
グリ	-10.3309
▁1936	-10.3309
売	-10.331
▁offered	-10.3311
sp	-10.3313
を設置	-10.3316
_	-10.3316
ball	-10.3318
ブリ	-10.332
▁tax	-10.3325
制御	-10.333
ky	-10.3331
▁Santa	-10.3332
▁北	-10.3334
内で	-10.3335
lock	-10.3337
帰	-10.3344
ture	-10.3347
山口	-10.3348
サイト	-10.335
南部	-10.3356
▁weeks	-10.3359
▁star	-10.336
▁officers	-10.3361
日まで	-10.3366
▁Victoria	-10.3367
批判	-10.3367
ロード	-10.3367
ala	-10.3377
▁Asian	-10.3378
▁Light	-10.338
▁today	-10.3381
▁Kong	-10.3381
ale	-10.3383
国立	-10.3387
▁2006.	-10.3392
ベン	-10.3392
▁Despite	-10.3397
際	-10.3397
▁acquired	-10.3401
▁2005,	-10.3401
▁Fu	-10.3404
▁particular	-10.3405
応	-10.3409
ボン	-10.3409
9%	-10.3411
▁descent	-10.3412
▁host	-10.3417
fe	-10.3418
起	-10.3419
持	-10.3422
ins	-10.3422
▁comedy	-10.3426
▁60	-10.3428
▁hours	-10.3431
ローマ	-10.3431
▁Steve	-10.3436
慶	-10.3441
マーク	-10.3442
共和国	-10.3444
発見	-10.3446
1990	-10.3448
賀	-10.3452
▁source	-10.3453
▁themselves	-10.3453
▁mainly	-10.346
採用	-10.3461
闘	-10.3461
▁Head	-10.3463
▁Earth	-10.3467
▁flight	-10.3473
▁More	-10.3474
いい	-10.3475
ks	-10.3481
▁plays	-10.3482
▁Regiment	-10.3482
▁Daniel	-10.3486
仕様	-10.3491
▁ships	-10.3495
▁中	-10.3499
によると	-10.3502
▁helped	-10.3504
▁medical	-10.3512
▁minutes	-10.3513
▁believed	-10.3515
EN	-10.3518
被	-10.3518
▁parents	-10.3519
デジタル	-10.352
域	-10.3521
対象	-10.3525
DA	-10.3527
▁variety	-10.3528
市場	-10.3528
上げ	-10.3529
▁troops	-10.3531
▁remaining	-10.3532
機構	-10.3532
を受けて	-10.3534
立て	-10.3538
ave	-10.3538
▁presented	-10.3541
▁concept	-10.3545
ステ	-10.3548
までは	-10.3549
▁break	-10.355
▁particularly	-10.3552
▁Main	-10.3555
プレイ	-10.3556
▁1938	-10.3557
ib	-10.3558
▁Ol	-10.3558
▁cap	-10.3561
目的	-10.3563
などに	-10.3566
▁Castle	-10.3569
▁Mount	-10.3573
圏	-10.3574
▁comp	-10.3577
(2010	-10.3578
ようになった	-10.3579
▁claimed	-10.358
死去	-10.3583
千葉	-10.3583
zz	-10.3588
▁effect	-10.3588
同時に	-10.3589
▁function	-10.3594
ral	-10.3595
ju	-10.3598
、3	-10.36
指導	-10.3612
もあり	-10.3619
▁Hospital	-10.3625
dale	-10.363
割	-10.363
▁always	-10.3631
由	-10.3633
▁heavy	-10.3633
▁missing	-10.3633
CO	-10.3634
8%	-10.3636
次郎	-10.3637
経験	-10.3641
org	-10.3642
課	-10.3647
デー	-10.3649
飛行	-10.3649
周辺	-10.365
したもの	-10.3653
▁master	-10.3659
称	-10.3661
▁Shi	-10.3664
タイプ	-10.3665
舞台	-10.3667
破壊	-10.3668
ington	-10.3668
▁Media	-10.3668
▁act	-10.367
▁35	-10.368
しく	-10.3681
cer	-10.3681
統一	-10.3691
▁earned	-10.3691
▁Another	-10.3692
▁crew	-10.3698
oon	-10.3701
▁poet	-10.3702
tch	-10.3703
影	-10.3704
▁attempt	-10.3708
▁Fire	-10.371
議会	-10.3713
ros	-10.3714
▁studied	-10.3721
dic	-10.3723
▁Va	-10.3725
▁technology	-10.3725
▁professor	-10.3728
▁energy	-10.3729
=#	-10.373
▁latter	-10.373
▁starting	-10.3732
秒	-10.3733
ments	-10.3734
ned	-10.3735
▁council	-10.3736
ショー	-10.3742
テレビ東京	-10.3743
ミー	-10.3744
▁pass	-10.3745
の名	-10.375
ery	-10.3751
チェ	-10.3758
引き	-10.376
▁overall	-10.376
ジャパン	-10.3765
精	-10.3767
▁turned	-10.377
登	-10.3771
装備	-10.3773
時期	-10.3778
殿	-10.3779
得	-10.3779
▁Both	-10.3779
▁oil	-10.3783
▁End	-10.3784
▁province	-10.3789
▁got	-10.3789
▁Premier	-10.379
pro	-10.3794
▁episodes	-10.3799
ことは	-10.38
▁theory	-10.38
4%	-10.3802
浩	-10.3805
ston	-10.3806
shire	-10.3807
▁provides	-10.3814
▁amount	-10.3815
印	-10.3816
終	-10.3817
ii	-10.3817
IA	-10.3817
▁article	-10.3818
ye	-10.3818
2013	-10.3824
漢	-10.3825
▁Son	-10.3825
▁Mountain	-10.3825
▁join	-10.3827
▁ob	-10.3827
▁System	-10.3829
▁raised	-10.3831
▁failed	-10.3832
mus	-10.3833
▁cities	-10.3834
▁block	-10.3835
▁Network	-10.3836
▁renamed	-10.3836
▁operation	-10.3837
dal	-10.3838
pri	-10.3839
▁meeting	-10.3839
▁finally	-10.3842
ワールド	-10.3843
▁Val	-10.3844
ジャー	-10.3845
▁1937	-10.3848
ons	-10.3848
植物	-10.385
wan	-10.385
昭	-10.3854
PA	-10.3856
▁supported	-10.3859
選挙	-10.3859
Mo	-10.3863
台湾	-10.3866
理由	-10.3867
誠	-10.3868
内閣	-10.3872
▁allow	-10.3874
▁Fi	-10.3875
エネルギー	-10.3876
5,000	-10.3877
飛	-10.388
▁Simon	-10.3881
)※	-10.3882
昌	-10.3887
water	-10.3891
トー	-10.3891
▁Za	-10.3893
▁200	-10.3895
生き	-10.3895
▁actress	-10.3898
▁Four	-10.3906
▁camp	-10.3909
寄	-10.3914
当駅	-10.3918
)10	-10.3919
▁pop	-10.3921
▁communities	-10.3921
東北	-10.3922
▁news	-10.3926
油	-10.3932
行政	-10.3932
▁Rome	-10.3933
rin	-10.3933
変化	-10.3937
を行い	-10.3938
2014	-10.3939
▁defeat	-10.3947
はこの	-10.3948
▁国道	-10.3957
▁covered	-10.3958
新しい	-10.3961
吉田	-10.3961
を取り	-10.3961
ほぼ	-10.3963
補	-10.3966
ates	-10.3969
DVD	-10.397
▁nearby	-10.397
▁2013,	-10.398
oo	-10.3982
憲	-10.3983
▁extended	-10.3984
▁carried	-10.3988
全て	-10.3988
▁organizations	-10.3991
結婚	-10.3997
名称	-10.3998
▁Justice	-10.4
sia	-10.4001
▁silver	-10.4001
▁Pen	-10.4002
▁Hong	-10.4005
罪	-10.4008
ジン	-10.4008
理論	-10.4009
▁visit	-10.401
▁fall	-10.4011
▁Cu	-10.4011
ency	-10.4012
af	-10.4013
記事	-10.4014
シティ	-10.4014
▁direction	-10.4015
系の	-10.4018
▁Wilson	-10.402
肉	-10.4025
▁Play	-10.4025
ティー	-10.4029
傷	-10.4029
ew	-10.4033
情	-10.4033
▁bus	-10.4036
▁des	-10.4036
標準	-10.4037
▁stories	-10.4039
(2011	-10.404
▁academic	-10.4045
▁Toronto	-10.4056
state	-10.4057
一部の	-10.4058
▁Gallery	-10.406
6%	-10.406
▁composed	-10.4065
2015	-10.4068
SS	-10.4069
mit	-10.4069
単位	-10.407
緑	-10.4071
条約	-10.4072
yan	-10.4072
▁month	-10.4076
ration	-10.4077
レッド	-10.4078
令和	-10.4081
▁4-	-10.4082
▁Sta	-10.4082
(2003	-10.4085
を持ち	-10.4086
軍の	-10.4086
機械	-10.4087
▁houses	-10.4087
eng	-10.4087
▁Boy	-10.4087
nce	-10.4094
▁Ken	-10.4095
報道	-10.4096
▁dance	-10.4101
tur	-10.4105
▁Ash	-10.4109
盤	-10.411
SC	-10.411
▁Hi	-10.411
たが	-10.4111
系列	-10.4112
▁newspaper	-10.4113
荒	-10.4115
リス	-10.4115
IT	-10.4117
▁Berlin	-10.4123
▁978-	-10.4126
▁featuring	-10.4129
静	-10.4129
としても	-10.4133
▁Notable	-10.4135
cle	-10.4136
▁Corporation	-10.4136
▁Ci	-10.4138
▁Duke	-10.4139
▁Bal	-10.4149
ien	-10.4151
襲	-10.4151
▁Stephen	-10.4154
示	-10.4156
▁couple	-10.4158
ida	-10.4159
絶	-10.416
▁leave	-10.4162
bel	-10.4164
▁cur	-10.4164
▁forms	-10.4165
実験	-10.4169
▁era	-10.417
▁residents	-10.4175
貞	-10.4175
700	-10.4176
枝	-10.4178
▁Beach	-10.4179
になって	-10.4182
▁know	-10.4183
▁Au	-10.4183
▁serve	-10.4188
▁forward	-10.4189
▁temple	-10.419
▁ancient	-10.4194
▁value	-10.4196
メートル	-10.4198
uri	-10.42
▁secondary	-10.4203
切り	-10.4205
将	-10.4206
▁Project	-10.4207
兄弟	-10.4211
養	-10.4214
lia	-10.4214
ón	-10.4218
ender	-10.422
▁nearly	-10.422
▁Prize	-10.4229
説明	-10.4235
モー	-10.4238
▁sector	-10.4238
▁Ye	-10.4239
class	-10.424
▁Also	-10.424
▁done	-10.424
を受ける	-10.424
▁Not	-10.4242
以後	-10.4243
過	-10.4243
作詞	-10.4244
チャー	-10.4247
tom	-10.4247
▁Master	-10.4247
受け	-10.4248
(2012	-10.4249
搭載	-10.4249
▁bank	-10.4252
なり	-10.4255
統合	-10.4255
の選手	-10.4256
神戸	-10.4257
▁ha	-10.4257
ama	-10.4258
aries	-10.426
tation	-10.4266
杉	-10.4268
▁policy	-10.4268
ミュージック	-10.4271
ST	-10.4271
ッド	-10.4275
▁Forest	-10.4278
Al	-10.4279
全体	-10.428
▁trans	-10.4282
eu	-10.4284
▁despite	-10.4284
▁build	-10.4288
ドン	-10.429
pin	-10.4292
▁32	-10.4293
2009	-10.4294
ash	-10.4295
CS	-10.4296
▁1935	-10.4298
年没	-10.4303
柄	-10.4306
▁color	-10.4308
射	-10.4308
幅	-10.4309
▁Minnesota	-10.4311
▁partner	-10.4312
▁recent	-10.4312
ゲスト	-10.4313
ili	-10.4313
らない	-10.4314
▁Swedish	-10.4316
▁cause	-10.4317
yo	-10.4317
▁stone	-10.432
掛け	-10.432
▁proposed	-10.4322
kar	-10.4323
博士	-10.4323
症	-10.4331
ants	-10.4332
▁keep	-10.4334
-6	-10.4339
されていない	-10.4343
ていたが	-10.4344
track	-10.4346
詩	-10.4349
▁Cro	-10.4351
▁von	-10.4352
▁words	-10.436
伸	-10.4364
納	-10.4366
▁gun	-10.4367
▁problems	-10.437
▁table	-10.4376
▁Ball	-10.4383
tha	-10.4387
ツアー	-10.4391
▁mo	-10.4393
▁Vo	-10.4393
デス	-10.4394
議	-10.4398
▁cell	-10.4398
▁der	-10.4407
▁portion	-10.4408
▁musicians	-10.4408
公式サイト	-10.4408
dan	-10.4411
思	-10.4416
▁ball	-10.4417
砂	-10.4418
選手権	-10.4422
飯	-10.4423
1999	-10.4426
2019	-10.4427
海外	-10.4428
▁Gra	-10.443
▁Death	-10.443
以降は	-10.4431
ich	-10.4434
▁Fair	-10.4435
改正	-10.4435
▁consists	-10.4439
ストーリー	-10.4439
していない	-10.444
講談社	-10.444
▁super	-10.444
▁Del	-10.444
▁conditions	-10.4443
宇	-10.4443
▁Cur	-10.4445
邦	-10.4447
支	-10.4448
づ	-10.4449
出身の	-10.445
処理	-10.4452
麻	-10.4455
и	-10.4459
eo	-10.4461
gy	-10.4462
ava	-10.4469
▁THE	-10.4471
▁2014,	-10.4472
新宿	-10.4472
▁Lady	-10.448
▁演	-10.4481
ste	-10.4481
Ro	-10.4482
▁heart	-10.4482
▁makes	-10.4491
▁channel	-10.4494
滝	-10.4496
▁Stadium	-10.4498
▁Rose	-10.45
din	-10.45
▁scene	-10.4501
朝鮮	-10.4501
lor	-10.4502
▁van	-10.4502
のもの	-10.4503
支店	-10.4503
するために	-10.4505
細胞	-10.4507
Pa	-10.4507
▁Com	-10.4509
ーズ	-10.4512
コード	-10.4514
ゴー	-10.4523
ていない	-10.4523
害	-10.4524
▁Korea	-10.4525
▁Tim	-10.4526
gue	-10.453
備	-10.453
牛	-10.453
dar	-10.4532
髪	-10.4532
刀	-10.4535
ドリ	-10.4539
を務めた	-10.4543
serv	-10.4543
▁primarily	-10.4544
▁specific	-10.4544
rowspan	-10.4546
▁Earl	-10.4549
▁husband	-10.4551
án	-10.4552
扱い	-10.4552
▁gas	-10.4552
AM	-10.4553
▁regional	-10.4554
▁society	-10.4555
▁Review	-10.4558
松本	-10.4558
せん	-10.4558
▁Junior	-10.4559
▁sc	-10.456
幕	-10.4562
消	-10.4564
ack	-10.4565
▁awards	-10.4566
▁parish	-10.4566
SD	-10.4569
です	-10.457
▁nature	-10.4572
▁(2	-10.4573
<	-10.4577
部の	-10.4578
▁mentioned	-10.4579
▁Win	-10.4581
折	-10.4582
いずれも	-10.4586
▁vote	-10.4586
▁BC	-10.4587
▁Social	-10.4587
▁signal	-10.4587
艦隊	-10.4588
生物	-10.4591
題	-10.4592
返	-10.4593
▁soldiers	-10.4598
▁prevent	-10.4601
防衛	-10.4602
でもある	-10.4604
えき	-10.4605
によれば	-10.4605
▁firm	-10.4607
振	-10.4608
阪神	-10.461
付き	-10.461
▁solo	-10.4614
bit	-10.4616
完全	-10.4616
2018	-10.4619
スキー	-10.4622
▁pair	-10.4629
▁dead	-10.4634
例えば	-10.4634
aki	-10.4636
▁told	-10.4637
(15	-10.4638
それを	-10.464
▁FM	-10.4642
スペイン	-10.4642
▁5,	-10.4644
▁1928	-10.4645
2020	-10.4647
▁Cambridge	-10.4651
▁farm	-10.4651
▁Stone	-10.4651
▁Islands	-10.4654
盛	-10.4659
医療	-10.466
▁DVD	-10.466
▁Sh	-10.4664
の場合	-10.4665
ert	-10.467
cu	-10.4674
交流	-10.4675
が行われた	-10.4675
style	-10.4676
費	-10.4677
▁managed	-10.4677
敬	-10.468
▁2007.	-10.4681
GA	-10.4683
革命	-10.4683
亀	-10.4683
▁clear	-10.4685
元年	-10.4686
通称	-10.4686
急行	-10.4688
▁Miss	-10.4689
▁directly	-10.4691
獣	-10.4692
vers	-10.4692
出す	-10.4693
教会	-10.4694
基準	-10.4694
▁pp	-10.4697
▁experience	-10.47
▁rugby	-10.47
連絡	-10.4703
数は	-10.4705
▁responsible	-10.4717
▁plans	-10.472
č	-10.4721
▁floor	-10.4727
共通	-10.4727
置	-10.4728
ensis	-10.4732
▁estate	-10.4732
▁Brazil	-10.4734
交換	-10.4734
▁founder	-10.4734
将軍	-10.4734
部屋	-10.4735
ジャン	-10.4738
▁upper	-10.4741
present	-10.4741
del	-10.4744
作業	-10.4746
cker	-10.4751
ona	-10.4753
休	-10.4756
ベース	-10.4756
にして	-10.4759
▁might	-10.476
uch	-10.4763
タル	-10.4764
読み	-10.4765
▁mountain	-10.4767
▁Heart	-10.4773
▁enough	-10.4776
▁prominent	-10.4778
人は	-10.478
ミン	-10.4781
祖	-10.4782
速度	-10.4782
エア	-10.4784
▁Arthur	-10.4784
▁Human	-10.4787
kh	-10.4789
福岡	-10.479
シア	-10.4793
ことが多い	-10.4795
▁transferred	-10.4795
パリ	-10.4799
▁novels	-10.4801
mal	-10.4801
一方で	-10.4804
▁Hot	-10.4807
グル	-10.4807
▁mission	-10.4808
▁2004,	-10.4809
軍事	-10.4809
ole	-10.481
▁Gen	-10.4811
解説	-10.4811
LE	-10.4815
掲載	-10.4816
-10	-10.4817
▁Golden	-10.4818
ple	-10.4824
▁Police	-10.4824
▁facilities	-10.4824
(2002	-10.4824
規定	-10.483
▁campus	-10.4831
のか	-10.4832
電車	-10.4833
az	-10.4834
win	-10.4835
ches	-10.4838
▁census	-10.4841
イル	-10.4843
▁Anti	-10.4844
pl	-10.4844
▁Born	-10.4847
▁Point	-10.4849
てきた	-10.4851
▁Supreme	-10.4856
vel	-10.4858
▁Federal	-10.4858
oma	-10.486
とう	-10.4861
2016	-10.4861
▁Elizabeth	-10.4863
▁green	-10.4865
▁appear	-10.4867
報告	-10.487
ition	-10.4875
ets	-10.4875
がない	-10.4875
制限	-10.4875
och	-10.488
▁organ	-10.4881
▁receive	-10.4882
▁individuals	-10.4884
ami	-10.4885
!』	-10.4888
ぬ	-10.4889
江戸時代	-10.4891
▁constructed	-10.4896
▁Camp	-10.4896
long	-10.4898
彼は	-10.4899
時は	-10.49
やま	-10.4903
▁Poland	-10.4906
時には	-10.4909
▁Community	-10.4911
amp	-10.4913
board	-10.4915
宗教	-10.4917
▁Sur	-10.492
▁transport	-10.492
▁Area	-10.4924
週	-10.4926
▁discovered	-10.4929
▁Tor	-10.4931
スタン	-10.4931
日本人	-10.4933
▁Trans	-10.4934
▁Pakistan	-10.4942
▁Tony	-10.4942
護	-10.4944
方向	-10.4946
宏	-10.4946
mas	-10.4947
▁1934	-10.495
▁online	-10.4951
▁whole	-10.4951
▁youth	-10.4954
思想	-10.4958
▁opera	-10.4959
とされている	-10.4965
ME	-10.4966
IP	-10.4967
ニューヨーク	-10.4968
▁1929	-10.497
ハウス	-10.497
脱	-10.4971
皇帝	-10.4974
境	-10.4975
▁Wil	-10.4975
▁Ray	-10.4976
彼	-10.4977
III	-10.498
▁Prime	-10.4983
衣	-10.4992
オス	-10.4994
体制	-10.4996
散	-10.4996
清水	-10.4997
彼女	-10.4997
電話	-10.5
band	-10.5002
▁distance	-10.5003
ゾ	-10.5004
の第	-10.5008
▁asked	-10.5008
New	-10.5009
▁background	-10.5009
▁traffic	-10.501
▁becomes	-10.5016
形で	-10.5016
▁notable	-10.5016
▁fish	-10.5017
▁Like	-10.5019
(2013	-10.502
▁Region	-10.502
引退	-10.5023
1000	-10.5031
ars	-10.5034
▁1933	-10.5035
アス	-10.5036
▁FIFA	-10.5037
のこと	-10.5037
軸	-10.5041
▁Business	-10.5041
▁divided	-10.5042
三郎	-10.5045
1980	-10.5046
寿	-10.505
の戦い	-10.5051
cul	-10.5053
ora	-10.5055
テレ	-10.5057
医	-10.5057
性格	-10.5057
住民	-10.506
bus	-10.5065
int	-10.5065
ban	-10.5065
労働	-10.5067
▁programming	-10.5067
▁likely	-10.507
チャンネル	-10.5072
▁1932	-10.5074
ヴェ	-10.5075
are	-10.5078
▁Technology	-10.5082
▁programme	-10.5083
形態	-10.5087
▁Francis	-10.5087
▁sign	-10.5092
本人	-10.5094
▁branch	-10.5095
▁product	-10.5096
フォン	-10.51
東日本	-10.51
っており	-10.51
▁method	-10.5103
▁Matt	-10.5103
sis	-10.5104
▁Design	-10.5106
Mar	-10.5108
duct	-10.5109
プレ	-10.5109
)12	-10.5114
入れ	-10.5115
▁families	-10.5116
▁medalists	-10.5118
を開始	-10.5118
することで	-10.5119
刊	-10.512
▁elements	-10.5125
kan	-10.5126
時点で	-10.5126
▁1918	-10.5126
▁origin	-10.5128
▁issued	-10.5128
▁birds	-10.5129
▁2015,	-10.5131
bro	-10.5134
▁captain	-10.5134
dd	-10.5135
wer	-10.5136
畑	-10.5136
言葉	-10.5136
▁Carl	-10.5137
クロス	-10.514
ble	-10.514
place	-10.5141
▁2.	-10.5141
ラス	-10.5144
得点	-10.5144
の娘	-10.5146
vent	-10.5149
対策	-10.515
件	-10.5153
▁Your	-10.5157
AN	-10.5158
▁transfer	-10.5158
東海	-10.5159
分類	-10.5162
▁split	-10.517
disambiguation	-10.5171
基地	-10.5172
ux	-10.5173
▁text	-10.5175
―	-10.5176
地下	-10.518
▁rule	-10.5186
ブー	-10.5186
▁winner	-10.519
▁mass	-10.5195
dle	-10.5201
▁Indiana	-10.5201
▁languages	-10.5211
▁Netherlands	-10.5211
化した	-10.5212
▁Stra	-10.5213
(2014	-10.5217
▁conflict	-10.5217
▁Nations	-10.5217
反対	-10.5218
ern	-10.5221
▁look	-10.5228
▁coaches	-10.5229
型の	-10.5229
(16	-10.5232
競技	-10.5233
太陽	-10.5235
▁products	-10.5236
▁workers	-10.5238
途中	-10.5239
側の	-10.5244
博物館	-10.5245
fin	-10.5247
強化	-10.5252
▁continue	-10.5254
cur	-10.5254
▁machine	-10.5255
▁piano	-10.5256
▁vol	-10.5259
法律	-10.5263
▁Fame	-10.5265
万人	-10.5266
▁agreement	-10.5267
▁cultural	-10.5269
▁kind	-10.5269
▁Down	-10.527
我	-10.527
編集	-10.5273
▁treatment	-10.5276
med	-10.5278
▁Fox	-10.528
ポイント	-10.5282
▁content	-10.5283
ソー	-10.5285
www	-10.5285
剤	-10.5288
rid	-10.529
スタッフ	-10.5292
貨物	-10.5295
政治家	-10.5296
▁drums	-10.5297
発売された	-10.5297
▁wanted	-10.5302
スク	-10.5308
と呼ぶ	-10.5311
アナ	-10.5314
2017	-10.5316
戦で	-10.5318
died	-10.5321
チュ	-10.5322
▁initial	-10.5322
上に	-10.5327
▁tower	-10.5329
▁airport	-10.533
▁quarter	-10.533
▁removed	-10.5331
ika	-10.5331
è	-10.5335
かん	-10.5335
▁Korean	-10.5335
▁Ali	-10.5337
第三	-10.5339
解散	-10.534
▁our	-10.534
泰	-10.5341
弱	-10.5343
武器	-10.5345
▁Sk	-10.5349
停止	-10.5353
▁Maria	-10.5354
▁letter	-10.5355
増加	-10.5355
したこと	-10.5355
かけ	-10.5358
▁stadium	-10.536
▁page	-10.536
綱	-10.5361
▁administration	-10.5362
(2001	-10.5366
▁le	-10.5369
▁protect	-10.5369
OR	-10.5377
Ba	-10.538
▁capacity	-10.5381
▁equipment	-10.5392
機体	-10.5393
付近	-10.5394
▁continues	-10.5398
復活	-10.5398
vert	-10.5398
▁pilot	-10.5399
▁南	-10.5401
鹿	-10.5404
精神	-10.5404
▁1931	-10.5407
仙台	-10.5407
沖縄	-10.5407
dra	-10.5409
を除く	-10.5413
▁fifth	-10.5414
敏	-10.5414
西日本	-10.5415
脳	-10.5416
れる	-10.5419
主演	-10.5423
▁Cho	-10.5428
ヶ	-10.5429
▁Br	-10.543
ことができる	-10.543
ペン	-10.5434
続	-10.5435
hn	-10.5436
▁sources	-10.5436
▁NFL	-10.5436
▁1927	-10.5437
rus	-10.544
▁promoted	-10.544
▁Lewis	-10.544
▁alongside	-10.5441
▁friends	-10.5443
▁1924	-10.5445
▁Season	-10.5445
購入	-10.5447
次の	-10.5447
▁sa	-10.5451
ブラック	-10.5452
1998	-10.5452
)11	-10.5455
▁Country	-10.5456
▁Former	-10.5458
施行	-10.5461
発生	-10.5462
▁read	-10.5471
モード	-10.5473
機器	-10.5473
定義	-10.5475
:1	-10.5475
▁Captain	-10.5477
-8	-10.5478
カイ	-10.548
▁高	-10.548
連合	-10.5481
イー	-10.5485
嘉	-10.5487
▁vs	-10.5489
温	-10.5489
▁dedicated	-10.5492
▁2016,	-10.5497
FL	-10.5499
資料	-10.5501
Be	-10.5501
ular	-10.5502
禁止	-10.5503
▁question	-10.5506
▁graduated	-10.551
spect	-10.5511
杯	-10.5514
log	-10.5515
ボー	-10.5517
筋	-10.5517
▁pick	-10.5518
勢力	-10.5519
札幌	-10.5521
ほとんど	-10.5522
▁managers	-10.5524
ホー	-10.5525
厚	-10.5529
▁arrived	-10.5535
となって	-10.5536
▁finish	-10.5536
cia	-10.5537
開設	-10.5538
ET	-10.554
▁highly	-10.5542
民族	-10.5542
ドー	-10.5543
▁Cer	-10.5543
追	-10.5544
▁theatre	-10.5544
lis	-10.5545
wo	-10.5549
▁上	-10.555
▁comes	-10.555
いち	-10.5553
障害	-10.5554
▁Wall	-10.5555
▁Colorado	-10.5556
▁poor	-10.5556
ソ連	-10.5558
ull	-10.5559
須	-10.556
カメラ	-10.5562
姓	-10.5562
gon	-10.5563
似	-10.5563
▁whether	-10.5564
土曜	-10.5565
▁destroyed	-10.5567
▁Nu	-10.5568
男子	-10.5571
孫	-10.5572
▁Kansas	-10.5572
ピー	-10.5575
▁Ze	-10.5575
分離	-10.5575
▁wind	-10.5575
たちの	-10.5576
▁Senate	-10.5576
iya	-10.5577
▁bo	-10.5578
▁purchased	-10.5579
▁store	-10.558
移	-10.5582
塔	-10.5582
▁politicians	-10.5582
容	-10.5583
▁search	-10.5585
▁titles	-10.5589
▁Swiss	-10.5589
主人公	-10.559
rich	-10.559
自動車道	-10.559
▁Ham	-10.5591
▁1926	-10.5594
pic	-10.5594
▁fellow	-10.5597
レコード	-10.56
フォ	-10.5602
声優	-10.5603
▁500	-10.5603
Co	-10.5604
落ち	-10.5604
Me	-10.5607
UN	-10.5607
▁45	-10.5607
▁produce	-10.5608
▁lives	-10.5612
配置	-10.5616
til	-10.5618
pan	-10.5619
▁Secretary	-10.5619
▁Qu	-10.5622
▁Brian	-10.5622
一人	-10.5627
コンピュータ	-10.5627
▁spring	-10.5628
接続	-10.5628
▁Kan	-10.5631
▁Taylor	-10.5634
テーマ	-10.5637
▁officially	-10.5639
sey	-10.5639
BC	-10.5643
因	-10.5646
rick	-10.565
▁80	-10.5651
▁Modern	-10.5653
問	-10.5657
▁Studies	-10.5657
晴	-10.5658
なか	-10.5658
▁street	-10.566
はその	-10.5662
大和	-10.5663
▁1914	-10.5665
He	-10.5667
ロス	-10.5668
の手	-10.5669
余	-10.5672
▁conducted	-10.5672
▁Squadron	-10.5675
▁Les	-10.5677
▁loan	-10.5681
ウェイ	-10.5686
氷	-10.569
▁inside	-10.5692
軌道	-10.5693
▁Mas	-10.5694
▁Davis	-10.5694
EX	-10.5695
ルート	-10.5698
▁pressure	-10.5698
▁Class	-10.57
プロジェクト	-10.57
izing	-10.5702
ves	-10.5703
▁Han	-10.5705
▁Professor	-10.5705
▁1919	-10.5706
▁basis	-10.5708
▁winners	-10.5708
をする	-10.571
ドゥ	-10.571
▁6,	-10.5712
MC	-10.5713
ED	-10.5713
▁Works	-10.5717
導入	-10.5719
▁distribution	-10.572
冠	-10.5721
ドラ	-10.5722
▁older	-10.5723
翼	-10.5723
-7	-10.5724
▁levels	-10.5726
sy	-10.5727
hill	-10.5727
認定	-10.5731
ene	-10.5734
▁am	-10.5736
▁Ac	-10.5737
▁Jackson	-10.5737
▁literature	-10.5737
▁Real	-10.5738
策	-10.574
(2015	-10.574
▁fiction	-10.5742
【	-10.5744
ナン	-10.5747
▁settlement	-10.5749
die	-10.5751
反応	-10.5752
▁approach	-10.5757
2021	-10.5758
照	-10.5758
演	-10.576
▁idea	-10.576
▁smaller	-10.5761
強い	-10.5761
空間	-10.5764
投手	-10.5765
work	-10.5769
▁Memorial	-10.5769
農業	-10.5771
▁follows	-10.5774
▁1912	-10.5776
1997	-10.5779
翌年	-10.5782
MP	-10.5784
lit	-10.5784
券	-10.5787
▁da	-10.5795
▁governor	-10.5796
▁Sweden	-10.5797
尚	-10.5798
ドア	-10.58
バラ	-10.5807
エス	-10.5808
tta	-10.5809
北部	-10.581
許	-10.5813
の子	-10.5813
▁secret	-10.5814
▁Hockey	-10.5815
▁7,	-10.5816
▁begins	-10.5816
劇	-10.5817
▁Christ	-10.5822
▁assigned	-10.5822
tis	-10.5823
▁Opera	-10.5823
▁environment	-10.5824
▁press	-10.5827
シェ	-10.5828
▁reform	-10.5832
▁screen	-10.5833
(2000	-10.5833
藤原	-10.5834
梅	-10.584
▁surrounding	-10.584
▁effects	-10.5841
▁sexual	-10.5842
ging	-10.5844
鈴木	-10.5845
▁1923	-10.5847
▁quickly	-10.5852
eri	-10.5852
ute	-10.5855
▁Kentucky	-10.5863
ico	-10.5865
▁draw	-10.5866
SF	-10.5867
▁1922	-10.5876
▁institutions	-10.5877
かな	-10.588
▁immediately	-10.5883
浅	-10.5887
ガンダム	-10.589
▁Jews	-10.589
のお	-10.5895
onic	-10.5897
▁serves	-10.5898
可能性	-10.5899
▁Cap	-10.5899
▁principal	-10.59
法人	-10.5901
oy	-10.5902
▁1925	-10.5902
セイ	-10.5909
▁cars	-10.5909
▁36	-10.5912
独	-10.5912
笠	-10.5912
だと	-10.5914
▁revealed	-10.5916
▁parties	-10.5919
AR	-10.5919
burn	-10.592
▁na	-10.5922
篇	-10.5922
▁types	-10.5926
kov	-10.5928
▁offers	-10.5929
導	-10.5929
ox	-10.593
雷	-10.593
位置	-10.5936
投	-10.5937
操作	-10.5939
bre	-10.5939
heim	-10.594
国鉄	-10.594
ug	-10.5941
▁Rugby	-10.5941
▁Th	-10.5941
床	-10.5942
プリ	-10.5944
▁target	-10.5944
ヴァー	-10.5945
パーク	-10.5949
獲得	-10.595
指揮	-10.595
▁saying	-10.5951
▁元	-10.5953
ギター	-10.5955
ファー	-10.5955
連盟	-10.5956
▁2017,	-10.5957
注	-10.5958
▁33	-10.5962
▁Guard	-10.5963
リオ	-10.5964
をもって	-10.5968
AS	-10.597
給	-10.5974
湾	-10.5974
ić	-10.5975
CA	-10.5976
冷	-10.5977
ae	-10.5978
降	-10.5978
▁prison	-10.5979
▁commonly	-10.5982
eb	-10.5982
没	-10.5985
▁operating	-10.5986
▁conference	-10.5989
米国	-10.5991
▁Space	-10.5993
▁territory	-10.5994
田中	-10.5994
rate	-10.5994
かつては	-10.5999
▁rules	-10.6001
▁growth	-10.6001
room	-10.6002
▁meet	-10.6003
▁Ross	-10.6006
▁dark	-10.6007
魔法	-10.6007
pper	-10.6012
hal	-10.6013
地上	-10.6014
dis	-10.6014
失敗	-10.6017
書房	-10.6017
を設立	-10.6017
▁Oregon	-10.6019
ユニット	-10.6027
sco	-10.6027
潮	-10.6032
▁Tennessee	-10.6032
▁typically	-10.6034
寛	-10.6035
PR	-10.6035
オル	-10.6035
▁concert	-10.6036
かい	-10.6036
▁Philip	-10.6038
読	-10.6038
bur	-10.6039
▁Geography	-10.6043
あった	-10.6043
▁scoring	-10.6044
一度	-10.6044
紅	-10.6047
bla	-10.6049
振り	-10.6049
colspan	-10.6051
hen	-10.6059
matic	-10.6059
勝ち	-10.606
経由	-10.6061
賢	-10.6069
検	-10.6071
una	-10.6071
戦後	-10.6071
▁charge	-10.6075
▁hosted	-10.6075
ES	-10.6076
▁numbers	-10.6078
▁bring	-10.6078
▁2018,	-10.6085
AD	-10.6086
!(	-10.6087
▁paper	-10.609
となっていた	-10.6091
▁Christmas	-10.6093
欠	-10.6093
▁grew	-10.6096
▁planned	-10.6096
由来	-10.6098
▁intended	-10.6098
命令	-10.6099
▁figure	-10.6099
古代	-10.6101
▁situation	-10.6101
▁drive	-10.6101
▁Pra	-10.6103
nan	-10.6103
フラ	-10.6105
相手	-10.6106
駒	-10.6107
▁Places	-10.6107
bin	-10.6108
▁(4	-10.6109
出力	-10.6109
▁blood	-10.6113
▁Arm	-10.6117
レベル	-10.6118
ory	-10.612
▁ability	-10.612
1996	-10.6121
網	-10.6121
ナイト	-10.6122
▁Bowl	-10.6124
▁display	-10.6124
▁1910	-10.6124
ado	-10.6132
"|	-10.6133
父親	-10.6135
▁McC	-10.6135
を指す	-10.6139
本作	-10.6141
資格	-10.6141
追加	-10.6142
ピアノ	-10.6143
▁yet	-10.6144
▁exchange	-10.6146
▁Ger	-10.6149
To	-10.615
▁mm	-10.6151
cent	-10.6153
zer	-10.6154
DO	-10.6155
ゲン	-10.6156
▁damage	-10.6156
▁Mont	-10.6157
大陸	-10.6157
連邦	-10.6157
▁moving	-10.6159
AI	-10.6161
▁tree	-10.6161
br	-10.6163
されたが	-10.6163
▁owner	-10.6164
▁Den	-10.6165
焼	-10.6167
いている	-10.6169
重要な	-10.6172
▁Sources	-10.6173
豪	-10.6177
▁hall	-10.6177
タレント	-10.6178
▁1921	-10.6178
拠点	-10.6178
play	-10.6178
▁extra	-10.6179
ably	-10.6179
▁Yo	-10.6182
▁security	-10.6184
▁Magazine	-10.6185
(2016	-10.6187
に改称	-10.6197
▁unknown	-10.6197
mes	-10.6198
トンネル	-10.62
RI	-10.62
設備	-10.6206
毎年	-10.6207
▁job	-10.6214
長い	-10.6214
▁leaves	-10.6214
エー	-10.6215
tus	-10.6216
DE	-10.6216
弟	-10.6219
▁cr	-10.622
要素	-10.6222
FA	-10.6222
ú	-10.6223
ties	-10.6225
Po	-10.6228
part	-10.6229
田村	-10.6229
が存在する	-10.6229
▁Sin	-10.6233
成績	-10.6235
▁activity	-10.6236
快	-10.624
まり	-10.6242
chen	-10.6248
改良	-10.625
面積	-10.625
にあたる	-10.6251
▁Before	-10.6255
を発表	-10.6255
分野	-10.6256
史上	-10.6259
(3	-10.626
▁Dun	-10.6262
内部	-10.6264
▁Wisconsin	-10.6265
oli	-10.6268
▁pe	-10.6269
▁Tar	-10.627
▁positive	-10.627
▁Place	-10.627
▁disease	-10.6274
GP	-10.6275
▁Sound	-10.6279
▁perform	-10.6289
に登場する	-10.6291
スタイル	-10.6291
▁problem	-10.6298
稲	-10.6301
与	-10.6301
集団	-10.6303
▁recently	-10.6303
▁combined	-10.6305
ati	-10.631
▁leaders	-10.6311
▁Bus	-10.6312
材	-10.6312
▁castle	-10.6315
芳	-10.6315
意識	-10.6315
▁competed	-10.6315
バージョン	-10.6316
▁ending	-10.6316
向上	-10.6317
zy	-10.6317
影響	-10.632
LA	-10.6325
▁disc	-10.6332
▁yards	-10.6333
▁£	-10.6333
ult	-10.6334
筆	-10.6334
▁software	-10.6334
ele	-10.6336
TC	-10.6336
mic	-10.6337
ようになる	-10.6337
▁Gor	-10.6337
stra	-10.6338
クル	-10.6339
aya	-10.6339
▁Way	-10.634
小型	-10.6341
イメージ	-10.6342
乳	-10.6344
新幹線	-10.6345
pen	-10.6348
渡辺	-10.635
回転	-10.6351
▁Melbourne	-10.6352
▁Register	-10.6354
meter	-10.6359
▁reserve	-10.6359
mark	-10.6361
暦	-10.6362
▁champion	-10.6362
▁Nor	-10.6367
エピソード	-10.6368
力を	-10.6369
NA	-10.6369
仲間	-10.637
▁reach	-10.637
運	-10.6375
フィー	-10.6377
を実施	-10.6378
▁Kim	-10.6379
▁1900	-10.6379
▁Dream	-10.6381
▁Representatives	-10.6382
▁pen	-10.6385
▁stand	-10.6385
ians	-10.6389
大きく	-10.6394
▁Cam	-10.6399
MO	-10.64
ID	-10.6401
コーチ	-10.6404
込む	-10.6406
▁2003,	-10.6407
たり	-10.6407
▁1917	-10.6408
可	-10.641
カラ	-10.6411
zu	-10.6411
▁foot	-10.6411
▁guard	-10.6416
峰	-10.6416
のほか	-10.6416
star	-10.642
全日本	-10.6421
プログラム	-10.6422
打ち	-10.6424
WA	-10.6426
▁Ana	-10.6427
テル	-10.6429
tim	-10.6431
唐	-10.6432
▁needed	-10.6433
ira	-10.6433
▁stay	-10.6434
▁joint	-10.6438
▁wood	-10.6438
▁Story	-10.6441
▁Maryland	-10.6441
▁develop	-10.6442
学院	-10.6444
▁mixed	-10.6445
▁contact	-10.6446
れた	-10.6446
gal	-10.6451
▁Medical	-10.6452
非常に	-10.6453
▁ordered	-10.6454
新たな	-10.6455
▁Report	-10.6456
san	-10.6457
▁urban	-10.6461
安全	-10.6462
▁Each	-10.6465
兵庫県	-10.6467
クイズ	-10.6467
チン	-10.6469
脚	-10.6471
宣言	-10.6473
HO	-10.6473
われ	-10.6475
禁	-10.6475
鳴	-10.6476
メイ	-10.6477
誕生	-10.6477
▁rail	-10.6479
建物	-10.6483
穴	-10.6483
▁plants	-10.6483
run	-10.6484
▁<	-10.6486
▁cor	-10.6486
程	-10.6489
出した	-10.6494
▁Back	-10.6494
ポン	-10.6497
▁Sar	-10.6498
which	-10.65
▁hill	-10.6502
▁Atlantic	-10.6503
議員	-10.6506
▁Wild	-10.6506
▁Holy	-10.6508
▁fell	-10.6508
▁Entertainment	-10.6509
トラック	-10.6509
ページ	-10.6509
type	-10.6511
▁presence	-10.6513
遺	-10.6514
商業	-10.6515
1960	-10.6515
nic	-10.6516
▁cha	-10.6519
譲	-10.6519
作成	-10.6521
▁projects	-10.6521
▁miles	-10.6524
KO	-10.6525
▁Temple	-10.6525
dor	-10.6528
電鉄	-10.6528
▁districts	-10.6529
▁composer	-10.6529
–17	-10.653
(1999	-10.653
特殊	-10.6531
▁Emperor	-10.6536
▁Switzerland	-10.6536
念	-10.6537
しん	-10.6538
▁Tan	-10.6539
略	-10.654
ming	-10.6541
築	-10.6542
荘	-10.6543
前後	-10.6544
デイ	-10.6546
エリア	-10.6549
▁Sand	-10.6551
平和	-10.6554
▁Township	-10.6554
▁critical	-10.6555
不明	-10.6555
▁本	-10.6556
▁audience	-10.6557
▁giving	-10.6557
管轄	-10.6557
▁Dam	-10.6557
ゆう	-10.6558
▁trains	-10.6558
▁Mur	-10.656
▁Tro	-10.6566
▁hold	-10.6568
眼	-10.657
、2006	-10.6572
ret	-10.6572
book	-10.6572
▁Ag	-10.6575
果	-10.6575
bury	-10.6579
アフリカ	-10.658
ぞ	-10.6581
2023	-10.6587
▁par	-10.6588
▁Sunday	-10.6588
首相	-10.659
▁Eric	-10.6591
推進	-10.6592
つく	-10.6593
▁contemporary	-10.6593
▁physical	-10.6594
ッカー	-10.6594
▁im	-10.6599
自動	-10.6599
と同	-10.66
の影響	-10.66
Di	-10.6601
▁potential	-10.6601
かわ	-10.6602
▁trial	-10.6603
▁reference	-10.6605
▁suffered	-10.6607
同盟	-10.6608
車体	-10.6608
▁Battalion	-10.6608
SL	-10.6613
つか	-10.6614
▁kill	-10.6614
)7	-10.662
地震	-10.6621
▁Missouri	-10.6622
迫	-10.6623
を示す	-10.6626
▁Harry	-10.6627
▁su	-10.6627
▁Six	-10.6628
▁launch	-10.663
時代に	-10.6631
о	-10.6631
もう	-10.6633
製の	-10.6633
市内	-10.6634
point	-10.6635
▁expanded	-10.6636
分の	-10.6637
ess	-10.6637
これが	-10.6639
近代	-10.664
▁tells	-10.6643
▁JR	-10.6644
▁adopted	-10.6644
kg	-10.6645
▁sites	-10.6646
▁judge	-10.6648
▁Program	-10.6648
▁Albert	-10.665
▁versions	-10.6654
▁count	-10.6658
▁Bel	-10.6659
証	-10.6659
▁museum	-10.666
の名称	-10.6662
すべて	-10.6663
tt	-10.6666
記載	-10.6669
view	-10.667
ザン	-10.667
▁Sri	-10.6671
▁Mid	-10.6671
▁avoid	-10.6671
腹	-10.6672
撃	-10.6673
▁作詞	-10.6674
▁symbol	-10.6675
▁lies	-10.6675
▁crime	-10.6676
also	-10.6677
東宝	-10.6677
勇	-10.6679
see	-10.668
▁wall	-10.6684
rat	-10.6685
▁Who	-10.6687
ヴァン	-10.6689
土地	-10.669
性能	-10.6691
▁formerly	-10.6693
一番	-10.6696
▁deep	-10.67
とその	-10.6703
▁digital	-10.6704
▁teaching	-10.6705
このため	-10.6705
▁$1	-10.6705
▁Arizona	-10.6707
▁Walter	-10.6708
▁wing	-10.6708
スの	-10.6709
名を	-10.6711
▁elections	-10.6712
▁reason	-10.6714
down	-10.6716
ロンドン	-10.6717
月まで	-10.6717
▁respectively	-10.6718
▁Historical	-10.6718
nny	-10.6721
灯	-10.6722
▁Ste	-10.6724
山田	-10.6724
▁agreed	-10.6725
▁image	-10.6727
▁Regional	-10.6731
至	-10.6733
▁und	-10.6733
GO	-10.6734
▁Tre	-10.6734
▁Hy	-10.6735
▁sh	-10.6735
める	-10.6736
▁quality	-10.6736
目の	-10.674
α	-10.6742
▁Member	-10.6742
▁classical	-10.6743
▁committee	-10.6744
mont	-10.6745
▁EP	-10.6752
▁Kat	-10.6754
ato	-10.6754
デル	-10.6758
にした	-10.6763
▁models	-10.6765
▁Turkey	-10.6766
▁i	-10.6775
▁focus	-10.6777
つき	-10.6777
lands	-10.6777
Ar	-10.6778
クト	-10.6779
主催	-10.6781
▁probably	-10.6781
▁Political	-10.6783
▁Char	-10.6784
rent	-10.6784
往復	-10.6785
▁2019,	-10.6787
の中	-10.6787
インターネット	-10.6789
告	-10.6789
▁efforts	-10.6793
図書館	-10.6793
▁talk	-10.6794
▁Norway	-10.6799
▁coming	-10.6799
▁Channel	-10.6801
▁Ter	-10.6802
覚	-10.6803
▁Dave	-10.6803
hl	-10.6803
▁8,	-10.6804
▁Mil	-10.6807
▁except	-10.6809
▁situated	-10.6816
黄	-10.682
ttle	-10.682
違い	-10.6821
▁Count	-10.6822
▁Wing	-10.6825
金曜	-10.6826
▁bill	-10.6826
羅	-10.683
▁bat	-10.683
▁Command	-10.6831
▁genus	-10.6834
▁Gal	-10.6835
▁Baron	-10.6842
激	-10.6843
▁classes	-10.6846
の間	-10.6847
▁broad	-10.6848
適	-10.6848
▁commander	-10.6848
▁industrial	-10.6851
▁How	-10.6852
ヘル	-10.6857
▁teacher	-10.6858
▁Des	-10.6859
▁Moon	-10.6861
▁bronze	-10.6861
▁captured	-10.6868
▁injury	-10.6868
まま	-10.6869
複数の	-10.687
▁Fri	-10.687
cut	-10.6871
窓	-10.6872
▁engineering	-10.6875
▁Khan	-10.6885
▁impact	-10.6886
中村	-10.6887
▁price	-10.6889
▁Mexican	-10.689
▁actually	-10.689
▁twice	-10.6891
gate	-10.6892
だけで	-10.6894
に出	-10.6894
レット	-10.6901
unk	-10.6901
近く	-10.6905
の一人	-10.6905
食品	-10.6906
文書	-10.6908
bor	-10.6909
テレビドラマ	-10.691
hood	-10.691
パス	-10.6912
街道	-10.6914
▁remain	-10.6915
長崎	-10.6916
stan	-10.6916
鎮	-10.6917
シャー	-10.6917
▁candidate	-10.6919
▁etc	-10.6921
Lo	-10.6922
▁widely	-10.6923
グリーン	-10.6927
たか	-10.6927
栗	-10.6931
-19	-10.6932
広く	-10.6933
key	-10.6936
成長	-10.6938
▁(16	-10.6939
人々	-10.6939
▁Mag	-10.6939
秋田	-10.694
平均	-10.6943
際に	-10.6945
▁accepted	-10.6948
深夜	-10.6948
▁SR	-10.6948
戻	-10.695
▁architect	-10.695
▁Children	-10.695
▁90	-10.6951
ネットワーク	-10.6954
dom	-10.6957
楽曲	-10.6959
▁Greece	-10.6962
ヒット	-10.6962
▁Doctor	-10.6963
▁micro	-10.6963
▁Engineering	-10.6966
▁Sen	-10.6967
住宅	-10.6968
ただ	-10.6969
郵便局	-10.697
タウン	-10.697
▁Ven	-10.6971
We	-10.6971
lle	-10.6973
電力	-10.6976
▁largely	-10.6976
クー	-10.6977
開通	-10.6978
ケイ	-10.6979
▁Miller	-10.6979
創設	-10.6979
主な	-10.6984
EL	-10.6985
死亡	-10.6986
伯	-10.6986
パワー	-10.6986
新たに	-10.6986
の名前	-10.6986
ison	-10.6993
tle	-10.6996
少	-10.6998
▁true	-10.7001
▁taught	-10.7006
▁Sky	-10.7006
mu	-10.7006
▁platform	-10.7008
隻	-10.701
2022	-10.701
パル	-10.7013
▁condition	-10.7013
んでいる	-10.7018
全ての	-10.7019
▁70	-10.702
east	-10.702
▁2008.	-10.7022
TO	-10.7023
pre	-10.7024
NS	-10.7027
普及	-10.7028
復帰	-10.7031
舎	-10.7035
ua	-10.7035
改革	-10.7035
なった	-10.7036
』、『	-10.7043
▁goes	-10.7043
▁spot	-10.7043
1955	-10.7043
談	-10.7046
lip	-10.7047
▁architecture	-10.7047
▁Hay	-10.7052
gli	-10.7053
(2017	-10.7053
ille	-10.7054
▁1908	-10.7055
ッキー	-10.7057
▁Var	-10.7058
▁faculty	-10.7059
▁Albums	-10.706
▁Ann	-10.706
▁Iran	-10.7061
ı	-10.7062
せる	-10.7062
免許	-10.7063
▁Fred	-10.7064
▁share	-10.7064
▁generation	-10.7066
▁Professional	-10.7066
▁racing	-10.7068
このような	-10.7068
▁Phil	-10.707
もしくは	-10.707
織	-10.7071
新潟	-10.7073
▁Bad	-10.7074
兵器	-10.7076
▁Billboard	-10.7078
▁resulted	-10.7079
鋼	-10.7081
使われる	-10.7083
弥	-10.7084
計算	-10.7084
保存	-10.7085
西部	-10.7086
▁risk	-10.7087
▁therefore	-10.7088
bol	-10.709
カリ	-10.7091
▁Israeli	-10.7092
▁Allen	-10.7092
名の	-10.7099
▁34	-10.7101
ラム	-10.7102
皇	-10.7103
ガル	-10.7104
▁weight	-10.7106
▁Dor	-10.7106
▁エ	-10.7106
いわゆる	-10.7108
uck	-10.711
(1998	-10.711
メル	-10.711
ace	-10.7111
ake	-10.7113
ワイ	-10.7113
▁Cape	-10.7114
▁Hamilton	-10.7115
氏の	-10.7121
▁analysis	-10.7121
創	-10.7123
生まれた	-10.7127
脇	-10.7128
▁Champions	-10.7128
▁facility	-10.7129
▁feet	-10.7132
▁Sciences	-10.7132
▁Production	-10.7133
毒	-10.7134
をしている	-10.7134
せい	-10.7135
コール	-10.7137
くん	-10.7138
▁difficult	-10.7138
chan	-10.7139
▁Basketball	-10.7141
井上	-10.7145
隠	-10.7146
中止	-10.7149
ナイ	-10.7149
▁gives	-10.7152
Li	-10.7153
▁Bibliography	-10.7155
▁Comp	-10.7158
観測	-10.7161
浪	-10.7163
▁Transportation	-10.7164
▁acid	-10.7164
展示	-10.7165
▁compared	-10.7165
デュ	-10.7165
ock	-10.7168
▁sales	-10.717
▁bio	-10.7171
▁follow	-10.7171
駅舎	-10.7172
億	-10.7173
▁Ren	-10.7174
乃	-10.7176
RC	-10.7179
吹	-10.7181
▁Mass	-10.7184
▁Ministry	-10.7189
ject	-10.7189
▁card	-10.719
種類	-10.7191
▁北海道	-10.7192
▁10,	-10.7193
▁horse	-10.7193
▁protest	-10.7196
祐	-10.7197
▁天	-10.7198
▁(3	-10.7198
▁minister	-10.7198
仮	-10.7202
▁creation	-10.7202
nal	-10.7202
Pro	-10.7203
▁Round	-10.7203
new	-10.7203
▁48	-10.7206
▁Alan	-10.7207
ame	-10.7208
がいる	-10.7208
▁gained	-10.721
▁granted	-10.7211
▁Mill	-10.7212
hara	-10.7213
河川	-10.7215
▁reduced	-10.7216
avi	-10.7218
奇	-10.7223
派の	-10.7223
ridge	-10.7223
▁promotion	-10.7224
pet	-10.7225
滅	-10.7226
主要	-10.7227
oid	-10.7228
もので	-10.7228
ean	-10.7232
Con	-10.7234
色の	-10.7235
eth	-10.7237
伊勢	-10.7237
記述	-10.7237
1970	-10.7238
準	-10.724
▁estimated	-10.724
コミック	-10.7241
▁unique	-10.7242
▁1915	-10.7245
Ra	-10.7246
▁demand	-10.7246
支配	-10.7248
▁newly	-10.725
▁journalist	-10.7251
思い	-10.7255
福島	-10.7255
コル	-10.7256
浮	-10.7257
▁Orchestra	-10.7258
派遣	-10.7258
eh	-10.7265
進行	-10.7268
▁Male	-10.7269
▁arms	-10.727
▁lake	-10.727
▁!	-10.7272
あまり	-10.7272
を結ぶ	-10.7272
始	-10.7275
▁attention	-10.7279
▁recognized	-10.728
▁beat	-10.7282
脚本	-10.7283
佐藤	-10.7285
仙	-10.729
reg	-10.7291
減少	-10.7296
▁cells	-10.7296
▁Key	-10.7296
憲法	-10.7296
吾	-10.7296
の元	-10.7298
活躍	-10.73
▁alternative	-10.73
MI	-10.7301
丘	-10.7305
▁participated	-10.7305
続く	-10.7308
が可能	-10.7309
最大の	-10.7309
▁lot	-10.7311
1945	-10.7313
▁Silver	-10.7313
▁Today	-10.7314
虫	-10.7318
サイド	-10.7321
聞	-10.7322
爆	-10.7323
▁2020,	-10.7324
▁declared	-10.7324
▁Pop	-10.7324
▁square	-10.7325
▁walk	-10.7326
▁Senior	-10.733
▁kept	-10.7331
stein	-10.7332
バイパス	-10.7335
▁Cy	-10.7336
▁Die	-10.7337
▁documentary	-10.7339
候補	-10.7341
1995	-10.7344
▁employed	-10.7345
▁Rob	-10.7347
ori	-10.7349
沖	-10.7349
(2018	-10.7351
season	-10.7352
tte	-10.7352
▁designated	-10.7356
▁connected	-10.7359
▁Manchester	-10.736
▁gene	-10.736
奏	-10.736
世の	-10.7364
ography	-10.7365
後期	-10.7366
▁nation	-10.7367
を行っている	-10.7367
(1997	-10.7369
▁Quebec	-10.737
▁Among	-10.7371
▁forest	-10.7372
犯	-10.7373
face	-10.7373
▁setting	-10.7373
▁Bla	-10.7375
▁hotel	-10.7377
ノン	-10.7379
▁draft	-10.738
▁Due	-10.7382
の世界	-10.7384
を担当	-10.7384
ect	-10.7385
▁Tr	-10.7386
なくなった	-10.7387
可能な	-10.7388
▁1913	-10.7388
競走	-10.739
▁resulting	-10.7393
▁offer	-10.7398
球団	-10.7399
オーストラリア	-10.74
塁	-10.7402
に近い	-10.7403
▁Infantry	-10.7407
▁spread	-10.741
▁明治	-10.7411
▁Boys	-10.7411
ense	-10.7412
-9	-10.7412
iff	-10.7412
の研究	-10.7413
1950	-10.7414
▁wins	-10.7417
穂	-10.7418
投票	-10.7418
戦隊	-10.7418
elli	-10.7422
▁adult	-10.7424
会員	-10.7425
金属	-10.7427
▁Hal	-10.7427
▁Singapore	-10.7428
yer	-10.7432
奈良	-10.7432
にとって	-10.7433
▁occurred	-10.7433
▁Alex	-10.7437
▁Girl	-10.7437
LO	-10.7439
▁Adam	-10.7439
▁percent	-10.7443
▁titled	-10.7447
DI	-10.7447
cell	-10.7449
ゴール	-10.745
保険	-10.7451
osa	-10.7452
競馬	-10.7452
▁vehicles	-10.7454
▁guitarist	-10.7455
ゲル	-10.7457
▁phase	-10.7458
▁cancer	-10.7459
除	-10.7459
▁acting	-10.746
▁cannot	-10.7461
1994	-10.7461
サイズ	-10.7463
▁Ocean	-10.7466
▁religion	-10.7467
フォー	-10.7468
物質	-10.7469
高等	-10.7469
ロボット	-10.7469
▁neighborhood	-10.7471
▁Turkish	-10.7472
、2005	-10.7473
別の	-10.7473
安定	-10.7475
ici	-10.7477
cro	-10.7477
意見	-10.7477
▁arts	-10.7483
一時	-10.7486
▁Detroit	-10.7486
▁combat	-10.7486
想	-10.7487
inger	-10.749
▁greater	-10.749
快速	-10.7494
希	-10.7495
算	-10.7497
▁roles	-10.7497
▁38	-10.7501
旅行	-10.7501
▁Anderson	-10.7502
中心	-10.7503
1992	-10.7506
決	-10.751
歯	-10.7513
犯罪	-10.7514
▁Management	-10.7517
▁sex	-10.7517
熊本	-10.7519
フレ	-10.752
▁administrative	-10.752
▁Howard	-10.7521
FF	-10.7522
ぶり	-10.7522
▁says	-10.7524
pot	-10.7524
▁Arab	-10.7525
▁relations	-10.7525
スタート	-10.7525
▁cat	-10.7528
▁passes	-10.7529
、2007	-10.7531
▁rise	-10.7535
-12	-10.7535
▁identified	-10.7535
▁Bon	-10.7537
▁37	-10.7541
▁Sol	-10.7541
▁festival	-10.7542
してきた	-10.7543
▁broke	-10.7545
桂	-10.7549
▁defense	-10.7549
パラ	-10.7549
▁honor	-10.755
確認	-10.7553
案内	-10.7555
家庭	-10.7557
▁Ty	-10.7557
願	-10.756
就任	-10.7561
厳	-10.7563
▁royal	-10.7564
–0	-10.7566
struct	-10.7567
合い	-10.7569
いない	-10.7571
▁corner	-10.7574
vy	-10.7575
▁educated	-10.7578
▁peak	-10.7578
▁Dance	-10.7583
teen	-10.7583
gle	-10.7586
特徴	-10.7586
▁Cemetery	-10.7587
航	-10.7589
▁Nick	-10.759
▁Hor	-10.759
▁Foreign	-10.7594
▁chairman	-10.7595
植	-10.7596
▁performances	-10.7601
シート	-10.7602
-18	-10.7602
日より	-10.7606
▁losing	-10.7611
▁2002,	-10.7613
銅	-10.7614
▁1911	-10.7615
性の	-10.7615
▁fine	-10.7616
年齢	-10.7618
▁rural	-10.7619
ister	-10.762
▁Vietnam	-10.762
健康	-10.7621
▁11,	-10.7621
芸	-10.7623
▁9,	-10.7626
人を	-10.7626
イングランド	-10.7628
mis	-10.763
ū	-10.7631
LD	-10.7633
▁Austria	-10.7635
▁Rad	-10.7635
ys	-10.7637
マス	-10.7639
、2010	-10.764
▁web	-10.764
押し	-10.7641
評	-10.7643
▁Pol	-10.7646
▁Musical	-10.7647
▁株式会社	-10.7647
▁younger	-10.7648
ネル	-10.7649
短期大学	-10.7654
press	-10.7659
▁Max	-10.766
そこで	-10.7663
▁Hol	-10.7666
採	-10.7667
▁big	-10.7669
▁Reg	-10.7669
cl	-10.7671
▁expansion	-10.7673
▁Rev	-10.7674
検査	-10.7678
▁1916	-10.7678
▁Patrick	-10.7679
▁Lar	-10.768
▁*	-10.7681
及	-10.7681
▁Federation	-10.7683
要求	-10.7684
発展	-10.7687
ワー	-10.7688
▁r	-10.7688
▁electric	-10.7691
▁Pur	-10.7692
▁morning	-10.7695
▁stars	-10.7696
▁Oklahoma	-10.7698
クレ	-10.7699
▁organized	-10.77
▁suit	-10.7703
▁spin	-10.7704
虎	-10.7705
▁Norwegian	-10.7707
get	-10.771
彩	-10.7711
atus	-10.7713
▁Im	-10.7714
けん	-10.7714
糸	-10.7715
▁providing	-10.7715
刺	-10.7716
(2019	-10.7717
rian	-10.7717
▁15,	-10.7719
▁winter	-10.772
固	-10.772
ulation	-10.7721
▁2001,	-10.7722
シル	-10.7723
日曜	-10.7723
ction	-10.7723
旅客	-10.7723
まず	-10.7725
1983	-10.7725
bon	-10.7727
ング	-10.7728
▁compilation	-10.7729
旗	-10.773
▁IV	-10.7733
▁municipalities	-10.7734
に位置する	-10.7735
プル	-10.7735
池田	-10.7736
▁Buck	-10.7736
▁knowledge	-10.7737
▁Bor	-10.7739
▁orchestra	-10.7741
価格	-10.7741
済	-10.7741
サッカー選手	-10.7742
▁library	-10.7747
巡	-10.7748
乗り	-10.7749
名が	-10.7754
▁Jay	-10.7759
nn	-10.7759
rit	-10.7762
自治体	-10.7763
▁Ford	-10.7765
トレ	-10.7766
の間に	-10.7766
▁housing	-10.7768
▁historic	-10.7772
▁Comics	-10.7774
成功	-10.7775
▁Guide	-10.7776
協	-10.7779
ポー	-10.7779
▁backing	-10.7781
▁wave	-10.7784
▁stock	-10.7787
▁Houston	-10.779
指摘	-10.7791
▁ring	-10.7792
▁2009.	-10.7792
込んだ	-10.7793
raw	-10.7794
▁accept	-10.7795
刊行	-10.7795
▁ranked	-10.7798
▁profile	-10.7799
▁translation	-10.78
▁2005.	-10.7802
▁scale	-10.7802
ソング	-10.7803
未来	-10.7804
よし	-10.7805
アラ	-10.7805
▁Because	-10.7807
二人	-10.7807
▁lyrics	-10.781
▁Kal	-10.7811
▁#1	-10.7814
rk	-10.7815
oni	-10.7821
▁ho	-10.7821
▁accident	-10.7823
更新	-10.783
▁しかし	-10.7831
▁sequence	-10.7833
ケース	-10.7834
なん	-10.784
tive	-10.784
これら	-10.7841
スペース	-10.7842
の後	-10.7846
しばしば	-10.7846
ことに	-10.7846
▁purpose	-10.7846
▁Philippines	-10.7848
▁box	-10.7849
е	-10.7849
▁compete	-10.7852
部に	-10.7852
尊	-10.7855
1982	-10.7856
カール	-10.7857
boy	-10.7859
fu	-10.7861
平日	-10.7861
飛び	-10.7863
▁ban	-10.7863
加入	-10.7863
▁Information	-10.7864
▁tradition	-10.7867
写	-10.7868
静岡県	-10.7868
nia	-10.7868
ゴン	-10.7868
gent	-10.787
hor	-10.7871
益	-10.7873
範囲	-10.7874
プレイヤー	-10.7875
from	-10.7875
に入	-10.7875
戦車	-10.7876
中で	-10.7877
適用	-10.7878
、18	-10.7879
▁Services	-10.788
取引	-10.7883
most	-10.7884
▁Ob	-10.7888
▁Age	-10.7891
先生	-10.7891
李	-10.7898
▁Gun	-10.7901
ello	-10.7901
gor	-10.7901
成立	-10.7902
▁Iowa	-10.7903
共に	-10.7904
比較的	-10.7904
▁Between	-10.7905
▁felt	-10.7905
▁charts	-10.7906
▁Ly	-10.7906
mel	-10.791
▁Jacob	-10.791
▁promote	-10.791
ネス	-10.7911
Bo	-10.7913
スタジアム	-10.7913
臨時	-10.7914
▁Portuguese	-10.7915
取得	-10.7918
▁marked	-10.7921
▁fully	-10.7922
CI	-10.7923
180	-10.7924
elle	-10.7927
、2008	-10.7927
▁Schools	-10.7927
加盟	-10.7927
▁Unit	-10.7927
▁oldest	-10.793
▁villages	-10.793
▁leadership	-10.7932
▁Race	-10.7933
育	-10.7933
mir	-10.7935
▁volume	-10.7938
aj	-10.7938
▁things	-10.794
gram	-10.7942
に就任	-10.7945
ビア	-10.7949
▁think	-10.7951
サル	-10.7953
区域	-10.7954
▁Metro	-10.7955
▁allows	-10.7956
lla	-10.7956
ドイツの	-10.7956
竣工	-10.7958
良い	-10.796
創立	-10.7962
à	-10.7965
▁simply	-10.7967
アウト	-10.7968
▁Brigade	-10.7969
形状	-10.7969
ă	-10.7971
臣	-10.7971
画面	-10.7971
▁edge	-10.7973
休止	-10.7977
リリース	-10.7978
固定	-10.7978
▁49	-10.798
になると	-10.7983
▁Local	-10.7983
▁escape	-10.7983
▁Gro	-10.7986
▁Argentina	-10.7986
アメリカの	-10.7987
Man	-10.7988
被害	-10.7988
▁challenge	-10.7988
ごとに	-10.7988
AP	-10.7989
美術館	-10.7992
AF	-10.7993
ben	-10.7993
▁2000,	-10.7993
00,000	-10.7996
▁Ak	-10.7996
偽	-10.8
紫	-10.8
聴	-10.8003
1993	-10.8003
pol	-10.8006
lum	-10.8006
▁Ros	-10.8006
カナダ	-10.8008
▁Academic	-10.8009
▁Diego	-10.8012
▁Em	-10.8013
▁vehicle	-10.8014
▁Call	-10.8016
専	-10.8017
辞	-10.8017
For	-10.8021
山本	-10.8022
においても	-10.8022
▁Revolution	-10.8026
▁Tokyo	-10.8026
もあった	-10.8029
海岸	-10.8029
継	-10.8029
当時は	-10.803
ree	-10.8032
▁Though	-10.8037
ナル	-10.8037
ワイド	-10.8037
▁expected	-10.8041
lio	-10.8043
TS	-10.8043
col	-10.8043
医学	-10.8045
▁attacks	-10.8046
底	-10.8049
▁Anne	-10.805
▁safety	-10.805
姉	-10.805
笑	-10.8051
株	-10.8054
既に	-10.8057
皮	-10.8059
(1996	-10.806
ディア	-10.8064
▁exhibition	-10.8066
でき	-10.8066
猫	-10.8066
▁Transport	-10.8069
事業者	-10.8071
▁Clark	-10.8072
同じく	-10.8073
▁threat	-10.8073
衆	-10.8074
▁fans	-10.8075
▁Il	-10.8077
You	-10.8079
四国	-10.808
▁settled	-10.8083
▁completely	-10.8086
1979	-10.8087
▁buried	-10.8088
▁Douglas	-10.8088
▁Honor	-10.8089
秘	-10.8091
▁ザ	-10.8091
▁What	-10.8091
▁strike	-10.8091
ander	-10.8093
▁succeeded	-10.8093
▁12,	-10.8095
▁twenty	-10.8097
兵衛	-10.8099
▁musician	-10.8099
▁Moscow	-10.81
拳	-10.8103
バトル	-10.8104
ゼン	-10.8107
▁1:	-10.8109
▁metres	-10.8112
らず	-10.8112
rom	-10.8113
キャラ	-10.8113
▁paid	-10.8113
の場合は	-10.8114
list	-10.8114
ビン	-10.8117
昇	-10.8117
啓	-10.8118
移転	-10.8121
▁girl	-10.8122
ald	-10.8122
▁Motor	-10.8123
ともに	-10.8126
▁claim	-10.8129
▁notes	-10.8129
ré	-10.813
自己	-10.813
known	-10.8132
ごと	-10.8132
py	-10.8134
規模	-10.8134
きた	-10.8135
▁claims	-10.8135
▁Para	-10.8137
▁girls	-10.8138
▁x	-10.8139
▁Lang	-10.814
継続	-10.8141
▁growing	-10.8142
しょう	-10.8142
▁flow	-10.8143
、2009	-10.8144
歴代	-10.815
▁learn	-10.8153
▁bought	-10.8155
分割	-10.8157
▁trees	-10.8158
ジョー	-10.8158
終点	-10.8159
▁アメリカ合衆国の	-10.8161
▁Brazilian	-10.8162
しても	-10.8164
すれば	-10.8164
▁allowing	-10.8165
世紀の	-10.8168
▁14,	-10.8169
▁aid	-10.817
▁Bull	-10.8171
会場	-10.8174
オール	-10.8175
▁maintain	-10.8176
▁intersection	-10.8177
▁animals	-10.8177
ことになる	-10.818
間に	-10.8182
おお	-10.8184
箱	-10.8186
▁positions	-10.8187
▁Gre	-10.8187
長野	-10.8188
▁map	-10.8189
▁旧	-10.8189
雑	-10.8191
▁formation	-10.8192
まだ	-10.8192
▁Sel	-10.8193
▁Fre	-10.8197
通過	-10.8197
▁simple	-10.8198
替え	-10.8201
▁Ltd	-10.8202
録音	-10.8203
ベー	-10.8203
封	-10.8203
aff	-10.8204
挙	-10.8204
▁politics	-10.8204
▁composition	-10.8204
▁officials	-10.8206
▁Wal	-10.8206
供給	-10.8208
▁shape	-10.8208
▁Anthony	-10.8212
治療	-10.8212
▁guest	-10.8212
多数	-10.8212
▁Eu	-10.8214
が行われ	-10.8215
撤退	-10.8215
NO	-10.8218
アイドル	-10.822
▁chain	-10.822
▁Muslim	-10.8224
▁Officer	-10.8225
負け	-10.823
▁task	-10.8238
以降の	-10.8243
肥	-10.8244
а	-10.8244
▁authorities	-10.8245
els	-10.8245
功	-10.8247
チュー	-10.8251
▁Alabama	-10.8251
▁Commonwealth	-10.8256
マシン	-10.8258
▁tried	-10.8259
▁FA	-10.826
剛	-10.826
▁effort	-10.826
(1995	-10.8261
sur	-10.8262
°	-10.8262
ska	-10.8263
しながら	-10.8264
▁headquarters	-10.8265
▁supply	-10.8267
これにより	-10.8269
探偵	-10.827
▁stream	-10.8273
進出	-10.8273
価	-10.8276
▁Kam	-10.8278
▁respect	-10.8278
ボス	-10.8278
sley	-10.8278
用語	-10.828
gel	-10.8281
▁agent	-10.8284
▁Islamic	-10.8284
▁Pla	-10.8285
)9	-10.8285
録	-10.8286
、4	-10.8286
▁Wei	-10.8287
ウェ	-10.8288
▁fighting	-10.8289
ラル	-10.8291
graph	-10.8291
▁Short	-10.8292
▁Ul	-10.8294
LI	-10.8294
対立	-10.8297
▁Med	-10.8297
▁Last	-10.8299
沙	-10.8301
▁Labour	-10.8302
訓練	-10.8303
▁Mah	-10.8303
rant	-10.8303
▁Hart	-10.8306
▁Connecticut	-10.8308
▁Web	-10.831
lay	-10.831
▁advance	-10.831
weight	-10.8312
EP	-10.8314
▁aired	-10.8314
札	-10.8315
首都	-10.8315
CP	-10.8317
▁path	-10.8318
▁主な	-10.8319
ela	-10.8321
那	-10.8322
その他	-10.8324
▁leg	-10.8325
仕事	-10.8327
をした	-10.8328
mination	-10.833
嶋	-10.8331
▁electronic	-10.8332
iel	-10.8333
▁squad	-10.8333
▁Anna	-10.8335
オランダ	-10.8335
ress	-10.8338
哲	-10.8338
ベイ	-10.834
▁frequently	-10.8341
桃	-10.8342
当初	-10.8344
ショ	-10.8345
▁Prior	-10.8346
しま	-10.8346
Ha	-10.8346
mission	-10.8347
tail	-10.8349
▁your	-10.8352
▁UEFA	-10.8353
▁(5	-10.8354
支持	-10.8355
▁existing	-10.8361
under	-10.837
▁arch	-10.837
▁address	-10.8375
することができる	-10.8377
▁killing	-10.838
在籍	-10.8381
諸島	-10.8382
菌	-10.8387
▁Now	-10.8388
▁Sport	-10.8389
▁Third	-10.8392
エイ	-10.8392
phy	-10.8393
▁Organization	-10.8393
▁Lin	-10.8394
部長	-10.8395
棟	-10.8396
機動	-10.8397
▁yellow	-10.8397
▁foundation	-10.8397
▁マ	-10.8397
▁articles	-10.8399
IL	-10.8399
されていたが	-10.8404
▁Czech	-10.8406
日本では	-10.8406
回戦	-10.8408
▁authority	-10.8408
するという	-10.8408
It	-10.8409
▁regions	-10.8409
lt	-10.8411
HL	-10.8411
朗	-10.8414
所有	-10.8415
▁カ	-10.8416
▁Bern	-10.8416
唯一の	-10.8417
▁valley	-10.8417
▁want	-10.8417
▁sense	-10.8418
▁showed	-10.8419
選択	-10.8419
1991	-10.8419
OL	-10.8419
木村	-10.842
知事	-10.8421
▁plot	-10.8425
thy	-10.8426
cra	-10.8426
負	-10.8427
予選	-10.8428
らしい	-10.8429
マリ	-10.843
処分	-10.843
▁pa	-10.843
背	-10.8431
▁fe	-10.8431
▁investigation	-10.8431
▁Mission	-10.8433
佳	-10.8433
駐	-10.8434
庫	-10.8434
ミサイル	-10.8435
司会	-10.8437
▁Player	-10.8437
▁onto	-10.8439
▁39	-10.8441
▁reports	-10.8441
1981	-10.8445
;"|	-10.8446
▁Pope	-10.8447
▁Collection	-10.8448
られていた	-10.8449
上野	-10.8451
▁basic	-10.8454
ila	-10.8455
▁h	-10.8456
石川	-10.8457
▁Operation	-10.8459
西武	-10.8459
コンサート	-10.846
bound	-10.8461
▁suggested	-10.8462
fish	-10.8463
ファイル	-10.8463
移籍	-10.8464
▁13,	-10.8466
▁script	-10.8466
vol	-10.8467
ルール	-10.8472
▁Bat	-10.8472
痛	-10.8474
▁comic	-10.8476
▁counter	-10.8476
borough	-10.8478
鹿児島	-10.8478
oe	-10.8481
wick	-10.8483
▁returning	-10.8485
▁po	-10.8489
責任	-10.849
民間	-10.8492
からも	-10.8493
抗	-10.8493
▁Windows	-10.8494
▁fuel	-10.8496
フランスの	-10.8496
vas	-10.8501
background	-10.8501
lus	-10.8501
柱	-10.8502
リンク	-10.8503
呉	-10.8504
▁大阪	-10.8507
▁Queensland	-10.8509
▁n	-10.8509
BE	-10.8511
▁publication	-10.8511
▁Lan	-10.8512
▁Ice	-10.8513
警察署	-10.8514
▁Dick	-10.8515
あい	-10.8517
▁1909	-10.8518
pel	-10.8522
▁object	-10.8522
ail	-10.8528
ルド	-10.8528
億円	-10.8529
rag	-10.8529
gh	-10.8529
▁2010.	-10.8531
てしまう	-10.8531
如	-10.8531
実現	-10.8537
▁occupied	-10.8538
又は	-10.8541
までに	-10.8543
職員	-10.8545
1972	-10.8547
東部	-10.8549
▁NHK	-10.8551
意味	-10.8553
▁normal	-10.8553
洗	-10.8553
thi	-10.8554
ali	-10.8555
ずつ	-10.8556
▁retirement	-10.8556
制定	-10.8557
主張	-10.8558
更に	-10.856
歳の	-10.856
▁ne	-10.856
ケル	-10.8561
▁Angel	-10.8564
▁Spring	-10.8566
▁Gil	-10.8568
▁Natural	-10.8569
HA	-10.8569
理解	-10.8571
課程	-10.8572
ブロック	-10.8572
ima	-10.8573
Go	-10.8573
之助	-10.8573
魂	-10.8574
▁Sim	-10.8575
Ch	-10.8575
ics	-10.8576
▁Welsh	-10.8576
▁covers	-10.8576
マスター	-10.858
▁peace	-10.8583
▁Seven	-10.8583
トム	-10.8583
オフ	-10.859
使い	-10.8591
ators	-10.8592
起点	-10.8593
野村	-10.8597
関係者	-10.8599
側に	-10.8602
▁MA	-10.8602
ものは	-10.8605
▁speech	-10.8606
▁Hand	-10.8606
▁citizens	-10.8606
分け	-10.8606
両編成	-10.8607
▁Dead	-10.8611
rt	-10.8611
露	-10.8613
▁brothers	-10.8614
洲	-10.8614
中学	-10.8615
暗	-10.8617
ジョージ	-10.8619
▁converted	-10.8619
2,000	-10.8621
(1994	-10.8621
anda	-10.8621
ケー	-10.8622
▁protection	-10.8623
▁contain	-10.8624
捜査	-10.8627
アリ	-10.8628
実際に	-10.8628
菊	-10.8629
丹	-10.8629
しなかった	-10.8631
spir	-10.8633
幕府	-10.8635
卵	-10.8635
▁zone	-10.8636
のない	-10.8636
ged	-10.8637
▁Hotel	-10.8638
鏡	-10.8638
▁Girls	-10.8639
mun	-10.8639
▁Moore	-10.864
▁attempts	-10.8641
▁2021,	-10.8641
las	-10.8643
▁Building	-10.8644
アクション	-10.8647
▁attend	-10.8649
ラブ	-10.8651
▁Independent	-10.8651
▁global	-10.8652
従来の	-10.8653
▁Wolf	-10.8654
▁hands	-10.8655
dict	-10.8655
Do	-10.8656
▁colour	-10.8657
sum	-10.8657
委員	-10.866
▁Culture	-10.8661
嫌	-10.8662
展	-10.8663
ポール	-10.8664
低い	-10.8665
巨人	-10.8666
▁Gri	-10.8668
▁Ur	-10.8668
▁strip	-10.8669
を務める	-10.8671
人に	-10.8672
▁entry	-10.8673
▁Cra	-10.8674
tent	-10.8674
世界の	-10.8676
▁technical	-10.8676
▁Several	-10.8676
▁Wind	-10.8676
▁Dublin	-10.8677
▁moment	-10.8677
$	-10.8677
中部	-10.8678
▁Internet	-10.8679
月曜	-10.8679
妙	-10.8682
▁Gordon	-10.8682
限	-10.8688
ベルト	-10.8688
▁(2006)	-10.8689
なければ	-10.8689
hur	-10.869
▁Trade	-10.8694
▁step	-10.8696
▁dog	-10.8698
▁Dec	-10.87
することを	-10.87
息子	-10.8704
ものが	-10.8704
殺害	-10.8705
▁その後	-10.8706
することが	-10.8706
と同時に	-10.8708
回復	-10.8708
自身	-10.8708
町立	-10.8711
▁reaction	-10.8711
pers	-10.8711
▁Burn	-10.8712
停留所	-10.8713
混	-10.8714
▁billion	-10.8714
▁Shu	-10.8714
att	-10.8717
bri	-10.872
▁surname	-10.8722
宣	-10.8722
▁trip	-10.8724
静岡	-10.8724
ード	-10.8726
ブレ	-10.8726
プロ野球	-10.8727
▁nominated	-10.8728
▁scientific	-10.8729
並	-10.873
▁criminal	-10.873
▁buy	-10.8732
▁figures	-10.8733
完	-10.8734
▁mayor	-10.8734
イオン	-10.8736
▁24,	-10.8741
試	-10.8741
▁Dark	-10.8742
周年	-10.8743
▁powerful	-10.8746
高橋	-10.8746
▁refused	-10.8746
lov	-10.8746
los	-10.8746
本名	-10.8747
▁inspired	-10.8749
nar	-10.8751
▁mono	-10.8751
▁25,	-10.8754
▁relatively	-10.8755
aku	-10.8755
るが	-10.8756
(4	-10.8759
mate	-10.876
▁Tur	-10.876
▁Security	-10.876
送り	-10.8761
母親	-10.8762
master	-10.8763
▁grow	-10.8765
入学	-10.8766
TE	-10.8766
▁Hell	-10.8766
区別	-10.8767
▁Garden	-10.8767
▁subsequent	-10.8769
SR	-10.877
を獲得	-10.8771
▁Language	-10.8772
後も	-10.8776
芝	-10.8776
ミス	-10.8777
bridge	-10.8777
▁sportspeople	-10.8777
-17	-10.8778
cin	-10.8782
▁Fer	-10.8785
復	-10.8789
三菱	-10.879
–16	-10.8791
まれ	-10.8792
発射	-10.8794
ムー	-10.8794
SO	-10.8794
夕	-10.8796
gri	-10.8796
▁1999,	-10.8797
▁1906	-10.8797
▁16,	-10.8797
事務	-10.8799
▁height	-10.8799
▁passing	-10.88
▁Vic	-10.88
▁reviews	-10.8801
ことも	-10.8801
であると	-10.8801
CH	-10.8803
▁Ron	-10.8804
1975	-10.8804
危機	-10.8804
ces	-10.8805
練習	-10.8805
▁daily	-10.8808
著作	-10.8808
ters	-10.8809
と言う	-10.8809
しゃ	-10.881
かり	-10.8811
衛星	-10.8813
▁rival	-10.8813
RT	-10.8814
▁singers	-10.8816
▁44	-10.8817
nor	-10.8818
▁starring	-10.8818
▁segment	-10.8821
▁painter	-10.8822
EA	-10.8825
▁dropped	-10.8827
▁2004.	-10.8827
lane	-10.8828
▁Kra	-10.8829
ウル	-10.8831
▁print	-10.8832
▁Jeff	-10.8835
粉	-10.8836
▁Hindu	-10.8836
であるため	-10.8839
ート	-10.8839
▁request	-10.884
惑星	-10.884
nis	-10.8844
ピン	-10.8845
▁extension	-10.8846
楽器	-10.8847
庭	-10.8847
今日	-10.8848
via	-10.8849
▁Louisiana	-10.885
▁イ	-10.8851
met	-10.8853
gie	-10.8856
執	-10.8856
▁1907	-10.8858
町の	-10.8859
ビジネス	-10.886
年頃	-10.8863
▁Plan	-10.8864
150	-10.8864
ジャック	-10.8867
hir	-10.8867
▁Cri	-10.887
調整	-10.887
誤	-10.8872
▁Naval	-10.8872
cast	-10.8873
▁achieved	-10.8874
っと	-10.8875
:#	-10.8877
leg	-10.8877
医師	-10.8877
周年記念	-10.8879
ィ	-10.888
確	-10.888
▁ad	-10.8881
欧州	-10.8882
徹	-10.8883
▁races	-10.8887
▁42	-10.8888
▁hero	-10.8888
▁1890	-10.8888
新潟県	-10.8889
した後	-10.889
方針	-10.8892
▁copies	-10.8893
ome	-10.8893
▁holding	-10.8893
▁ethnic	-10.8895
▁Bro	-10.8895
岡山	-10.8899
▁unable	-10.8901
これに	-10.8904
実行	-10.8904
sson	-10.8905
教え	-10.8905
▁Trust	-10.8906
寒	-10.8906
インター	-10.8906
だい	-10.8907
▁30,	-10.8908
常に	-10.891
itz	-10.8912
込んで	-10.8912
世代	-10.8913
000	-10.8913
依頼	-10.8914
尻	-10.8916
ダル	-10.8917
裁判	-10.8917
▁DC	-10.8919
の各	-10.892
松竹	-10.892
マッ	-10.8923
刑	-10.8923
ほどの	-10.8925
▁rating	-10.8925
▁Cleveland	-10.8927
機の	-10.8928
しているが	-10.8928
ソロ	-10.8929
▁lap	-10.893
▁applied	-10.8931
臨	-10.8932
▁seed	-10.8935
ges	-10.8936
sie	-10.8938
▁Liberal	-10.8938
▁Harvard	-10.8939
阪	-10.894
▁Side	-10.8943
▁merged	-10.8943
伝統	-10.8944
岳	-10.8944
通常の	-10.8944
宮崎	-10.8945
final	-10.8945
牧	-10.8945
アク	-10.8945
たま	-10.8947
えた	-10.8948
僧	-10.8948
▁municipal	-10.895
aga	-10.8951
▁holds	-10.8951
BO	-10.8952
▁Roger	-10.8956
▁Singles	-10.8957
童	-10.8957
1978	-10.8959
習	-10.8959
▁statement	-10.8963
▁5:	-10.8963
▁Las	-10.8964
▁Samuel	-10.8964
▁flat	-10.8964
各種	-10.8968
のちに	-10.8968
sol	-10.8974
SM	-10.8975
規格	-10.8975
残り	-10.8975
作曲家	-10.8976
ark	-10.8978
▁materials	-10.8979
)6	-10.8981
▁fought	-10.8983
▁Juan	-10.8986
▁defined	-10.8987
▁failure	-10.8987
忍	-10.8988
▁resources	-10.899
▁Hungarian	-10.8991
プレー	-10.8992
cycl	-10.8995
%	-10.8995
▁gra	-10.8995
スカ	-10.8998
▁Pittsburgh	-10.8998
1.5	-10.9
hol	-10.9
▁Mun	-10.9004
▁1889	-10.9005
pu	-10.9006
冒険	-10.9006
round	-10.9007
▁Kh	-10.901
▁22,	-10.9011
▁enemy	-10.9012
と同様に	-10.9012
架	-10.9014
月刊	-10.9015
▁trail	-10.9015
pul	-10.9015
▁standing	-10.9016
▁entrance	-10.9018
ines	-10.9019
ony	-10.9019
▁drug	-10.902
坊	-10.9021
▁Iron	-10.9022
クター	-10.9024
eck	-10.9026
州の	-10.9032
ved	-10.9033
OP	-10.9033
大阪市	-10.9033
カバー	-10.9035
を通じて	-10.9036
教師	-10.9037
によっては	-10.9037
▁chosen	-10.9038
▁venues	-10.9039
年より	-10.9039
▁necessary	-10.9041
▁19,	-10.9041
らい	-10.9041
ポート	-10.9041
▁Miami	-10.9041
▁Luc	-10.9043
形の	-10.9045
記憶	-10.9046
▁extensive	-10.9048
上記の	-10.9048
庄	-10.9048
▁entitled	-10.9049
▁arrested	-10.9049
▁23,	-10.9052
nik	-10.9052
▁hair	-10.9055
小林	-10.9055
担	-10.9057
▁Administration	-10.9058
▁performing	-10.9059
ローカル	-10.9059
Star	-10.9059
▁weak	-10.906
Ho	-10.9061
ify	-10.9062
▁Here	-10.9063
▁18,	-10.9064
▁consecutive	-10.9064
▁historian	-10.9064
通算	-10.9066
▁Only	-10.9067
みな	-10.9068
領域	-10.9069
を意味する	-10.907
sure	-10.9072
but	-10.9073
▁64	-10.9075
イヤー	-10.9078
崩壊	-10.9079
(1992	-10.9079
▁Run	-10.908
ネタ	-10.9081
数の	-10.9084
ポリ	-10.9086
息	-10.9087
ñ	-10.9089
cri	-10.9089
過去	-10.9092
▁containing	-10.9093
rea	-10.9093
▁narrow	-10.9095
▁regiment	-10.9095
ポーランド	-10.9096
▁Nan	-10.9096
か月	-10.9097
が発足	-10.9097
▁description	-10.9099
▁begin	-10.91
▁Buildings	-10.9102
らが	-10.9103
▁Pass	-10.9103
逆に	-10.9104
▁Pad	-10.9107
non	-10.9107
▁letters	-10.9107
▁honour	-10.9109
▁motor	-10.911
1989	-10.9111
RS	-10.9111
election	-10.9111
▁Jon	-10.9112
▁progress	-10.9113
初期の	-10.9115
▁Upon	-10.9117
ときに	-10.9118
場合もある	-10.912
▁kick	-10.9124
▁jazz	-10.9124
▁sixth	-10.9125
)8	-10.9125
行う	-10.9127
▁theater	-10.9128
▁金	-10.9128
(1991	-10.913
組合	-10.9131
駅から	-10.9131
▁link	-10.9131
を有する	-10.9132
aire	-10.9132
▁something	-10.9132
▁Commander	-10.9132
トーク	-10.9134
止め	-10.9135
月場所	-10.9135
ということ	-10.9136
kes	-10.9137
ブック	-10.9139
its	-10.914
▁AD	-10.9141
中山	-10.9141
譲渡	-10.9143
の上	-10.9143
▁mix	-10.9144
予	-10.9145
完全に	-10.9147
出版社	-10.9148
弟子	-10.9148
▁Background	-10.9148
ING	-10.9149
0%	-10.915
▁gain	-10.9151
▁effective	-10.9151
▁21,	-10.9152
▁northeast	-10.9153
1969	-10.9153
isation	-10.9153
▁mill	-10.9153
認識	-10.9153
▁Classic	-10.9156
▁actresses	-10.9157
の中に	-10.9159
入口	-10.9159
▁オ	-10.916
arch	-10.9161
に出演	-10.9161
ウィン	-10.9162
球場	-10.9163
related	-10.9163
やり	-10.9164
信号	-10.9164
玄	-10.9164
探	-10.9165
菜	-10.9166
重要	-10.9166
▁Bas	-10.9167
she	-10.9167
▁mu	-10.917
▁Cla	-10.9171
▁Site	-10.9171
かなり	-10.9171
▁obtained	-10.9172
agh	-10.9172
PO	-10.9172
yr	-10.9173
無料	-10.9174
テスト	-10.9174
の作品	-10.9179
uz	-10.9181
▁graduate	-10.9181
▁str	-10.9182
▁Kevin	-10.9184
▁piece	-10.9185
ニング	-10.9187
▁Lincoln	-10.9191
▁Frederick	-10.9192
僕	-10.9196
遺跡	-10.9197
▁Glen	-10.9197
学会	-10.92
弓	-10.9201
▁26,	-10.9201
▁votes	-10.9203
▁advanced	-10.9204
jan	-10.9204
▁driver	-10.9206
流れ	-10.9206
戦い	-10.9207
▁Square	-10.9208
▁speak	-10.9209
▁sell	-10.921
淳	-10.9212
キャンパス	-10.9212
eve	-10.9213
(1993	-10.922
▁Grant	-10.9221
咲	-10.9222
▁attempted	-10.9222
)5	-10.9224
▁chapter	-10.9226
TR	-10.9226
、2004	-10.9228
tti	-10.9228
効	-10.923
なっている	-10.923
▁Hans	-10.923
許可	-10.9232
▁centuries	-10.9232
アーティスト	-10.9234
▁Matthew	-10.9236
Mi	-10.9237
複数	-10.9237
table	-10.9239
ote	-10.9241
本塁打	-10.9241
鷹	-10.9244
roy	-10.9244
資金	-10.9245
盗	-10.9249
▁domestic	-10.925
パート	-10.925
ugh	-10.9252
▁28,	-10.9253
こそ	-10.9254
▁Affairs	-10.9255
規制	-10.9255
太田	-10.9257
▁inhabitants	-10.9258
HS	-10.9258
、2000	-10.9258
合成	-10.9258
▁finds	-10.9261
▁Nazi	-10.9262
▁Dragon	-10.9262
fra	-10.9264
自治	-10.9265
▁creating	-10.9266
再生	-10.9271
権利	-10.9273
▁grade	-10.9274
▁incident	-10.9275
ほう	-10.9276
▁Ottoman	-10.9277
めた	-10.9277
▁ski	-10.9279
▁1905	-10.9279
胸	-10.9279
現象	-10.928
▁Cities	-10.9281
下の	-10.9282
rap	-10.9282
▁Forces	-10.9282
貫	-10.9283
▁Austrian	-10.9287
▁Village	-10.9289
旭	-10.9289
後半	-10.929
▁Monte	-10.929
▁Kin	-10.9291
term	-10.9291
lab	-10.9295
川崎	-10.9297
ér	-10.9298
校舎	-10.9301
を開始した	-10.9303
▁rear	-10.9303
敷	-10.9306
enberg	-10.9306
の放送	-10.9307
捕	-10.9309
(2020	-10.9313
bas	-10.9315
▁Jane	-10.9315
ンズ	-10.9317
回り	-10.9319
▁Antonio	-10.9319
1973	-10.9323
の開発	-10.9323
さい	-10.9326
▁file	-10.9328
▁painting	-10.9329
▁Eli	-10.9331
パーソナリティ	-10.9333
リック	-10.9333
▁Villa	-10.9336
▁shared	-10.9337
放送局	-10.9337
分析	-10.9339
させて	-10.9342
講	-10.9344
▁sport	-10.9345
▁Volume	-10.9348
ヘッド	-10.9348
協定	-10.935
当たり	-10.9352
のひとつ	-10.9352
のまま	-10.9355
▁steel	-10.9355
使用する	-10.9357
▁fear	-10.9357
に関しては	-10.9358
伊藤	-10.9359
1974	-10.936
▁Der	-10.936
▁save	-10.9361
▁Disc	-10.9365
を廃止	-10.9365
うち	-10.9366
▁string	-10.9368
ガイ	-10.9369
▁Studios	-10.9369
閉	-10.937
▁Test	-10.9371
▁Montreal	-10.9371
▁grant	-10.9372
この時	-10.9373
▁Elementary	-10.9377
ante	-10.938
tag	-10.938
▁approved	-10.9383
▁opposition	-10.9383
▁seats	-10.9383
AV	-10.9386
▁pi	-10.9389
セント	-10.9389
ort	-10.9389
ティング	-10.939
▁choice	-10.9391
だけでなく	-10.9394
▁theme	-10.9394
▁Jesus	-10.9395
▁Egypt	-10.9396
▁ABC	-10.9396
sign	-10.9398
人生	-10.94
EE	-10.9401
▁ultimately	-10.9403
▁selection	-10.9405
▁Non	-10.9406
cap	-10.9406
▁confirmed	-10.9406
cip	-10.9407
LP	-10.9408
▁survey	-10.9409
SH	-10.9412
▁UN	-10.9413
発着	-10.9414
▁competitions	-10.9415
種の	-10.9416
▁fun	-10.9416
地元	-10.9416
妹	-10.9416
▁27,	-10.9417
リーダー	-10.9417
階級	-10.9417
▁Danish	-10.942
▁Hills	-10.9421
▁Bruce	-10.9424
rot	-10.9424
銀河	-10.9426
cio	-10.9427
▁appeal	-10.9427
るため	-10.9427
ける	-10.9428
儀	-10.9429
▁vice	-10.9429
▁soccer	-10.9429
(2021	-10.9432
▁boy	-10.9436
rated	-10.9438
1976	-10.9441
aria	-10.9441
狂	-10.9441
ヴォ	-10.9443
▁Kir	-10.9443
eva	-10.9444
▁Reserve	-10.9445
福祉	-10.9446
閉鎖	-10.9449
▁memory	-10.9449
テレビアニメ	-10.945
下り	-10.9452
▁chair	-10.9452
▁2011.	-10.9453
起用	-10.9453
定期	-10.9457
金沢	-10.9458
▁ス	-10.946
工学	-10.9461
ニン	-10.9462
▁poetry	-10.9463
▁Lieutenant	-10.9465
身体	-10.9466
IV	-10.9466
▁document	-10.9466
▁consisted	-10.9467
ule	-10.9467
こともあり	-10.9467
▁nuclear	-10.947
巣	-10.9471
青年	-10.9472
position	-10.9476
にあり	-10.9476
▁locations	-10.9477
▁repair	-10.9482
特定	-10.9483
ヒル	-10.9484
カット	-10.9486
mat	-10.9486
▁say	-10.9487
同一	-10.9487
gra	-10.9489
隣	-10.9492
高松	-10.9493
hang	-10.9494
▁iron	-10.9494
ごろ	-10.9494
使用される	-10.9496
備え	-10.9496
▁relative	-10.9498
▁1904	-10.9498
▁Chart	-10.95
▁Fall	-10.9503
▁equal	-10.9505
dr	-10.9505
扉	-10.9506
熊	-10.9506
物の	-10.9508
高速道路	-10.9509
アンド	-10.9511
新設	-10.9512
▁Zo	-10.9512
▁heat	-10.9512
▁Ant	-10.9513
▁Mat	-10.9514
▁Baltimore	-10.9518
1971	-10.9519
メント	-10.952
合わせ	-10.9521
▁permanent	-10.9522
▁fan	-10.9522
プロダクション	-10.9524
の際に	-10.9525
▁Hard	-10.9525
事実	-10.9526
▁methods	-10.9529
▁shortly	-10.9529
カス	-10.953
olo	-10.9531
▁passenger	-10.9534
練	-10.9538
の父	-10.9541
児童	-10.9542
決勝	-10.9546
ディング	-10.9546
1977	-10.9547
が高い	-10.9548
こうした	-10.9552
広告	-10.9554
oper	-10.9554
nel	-10.9556
フィールド	-10.9557
ink	-10.9558
▁長	-10.956
巨	-10.9561
贈	-10.9562
▁Page	-10.9562
▁founding	-10.9563
おか	-10.9567
▁2022,	-10.9568
わない	-10.9568
丁	-10.957
小さな	-10.9576
Se	-10.9576
処	-10.9576
▁bomb	-10.9577
▁sides	-10.9579
▁sons	-10.9579
▁learning	-10.9579
地に	-10.958
dam	-10.9581
▁dam	-10.9584
▁meant	-10.9584
▁1903	-10.9585
▁Hawk	-10.9585
▁invasion	-10.9585
ites	-10.9587
▁medium	-10.9587
希望	-10.959
▁Edition	-10.959
朝日	-10.9592
投げ	-10.9593
▁全	-10.9594
▁Harris	-10.9594
app	-10.9596
▁(2005)	-10.9597
▁statistics	-10.9598
サポート	-10.9598
これまで	-10.96
▁don	-10.9603
▁MPs	-10.9604
▁ends	-10.9604
継承	-10.9604
岐	-10.9604
られて	-10.9607
中野	-10.9607
神経	-10.9607
print	-10.9608
▁Gray	-10.9609
結局	-10.961
使用された	-10.961
▁Billy	-10.961
できた	-10.9611
pho	-10.9616
bl	-10.9617
設	-10.9618
苦	-10.9618
らの	-10.9618
ひろ	-10.9619
▁Mayor	-10.962
▁believe	-10.9623
週刊	-10.9625
▁application	-10.9625
900	-10.9626
書店	-10.9627
▁actions	-10.9633
とされ	-10.9633
週間	-10.9634
west	-10.9636
▁column	-10.9636
▁planning	-10.964
▁residence	-10.9643
五郎	-10.9644
▁Islam	-10.9645
rim	-10.9646
page	-10.9648
▁29,	-10.9651
ソフトウェア	-10.9652
中間	-10.9654
大橋	-10.9654
▁About	-10.9655
▁Electric	-10.9655
(1990	-10.9656
燃料	-10.9659
logy	-10.966
組み	-10.966
dig	-10.9661
ident	-10.9662
祝	-10.9663
"),	-10.9664
▁Dean	-10.9664
▁Tamil	-10.9665
cel	-10.9666
有名	-10.9669
gre	-10.9672
▁20,	-10.9673
▁boys	-10.9674
強く	-10.9674
ique	-10.968
▁visited	-10.9681
▁PA	-10.9683
起こ	-10.9685
▁Portugal	-10.9686
▁Vice	-10.9686
眠	-10.969
キリスト教	-10.9691
の存在	-10.9692
を認め	-10.9694
▁glass	-10.9695
空気	-10.9697
chy	-10.9699
略称	-10.97
執筆	-10.97
を使って	-10.9702
洞	-10.9702
▁storm	-10.9703
左右	-10.9703
▁fields	-10.9703
▁Senator	-10.9706
▁solid	-10.9708
甘	-10.9708
▁properties	-10.9709
チャンピオン	-10.971
Car	-10.9715
財	-10.9716
▁designer	-10.9717
交渉	-10.9717
島の	-10.9719
▁Cook	-10.9724
▁acts	-10.9725
第二次世界大戦	-10.9726
故	-10.9728
arian	-10.9729
となっており	-10.9732
▁tri	-10.9732
号線	-10.9733
式の	-10.9733
画家	-10.9735
▁opposed	-10.9736
多摩	-10.9736
NI	-10.9738
dies	-10.9738
worth	-10.974
マガジン	-10.9742
シャン	-10.9742
▁Publishing	-10.9742
3000	-10.9749
▁bishop	-10.9749
inch	-10.975
ばかり	-10.9751
▁derived	-10.9752
団地	-10.9753
アニメーション	-10.9754
▁1901	-10.9756
ブラジル	-10.9756
環	-10.9756
▁Cast	-10.9756
▁Standard	-10.9757
下げ	-10.9758
▁1998,	-10.9761
iti	-10.9763
▁recordings	-10.9766
▁lo	-10.9766
▁Expatriate	-10.9767
の新	-10.9768
まち	-10.977
▁Knight	-10.977
▁mean	-10.9772
▁mode	-10.9775
▁crossing	-10.9777
、5	-10.9779
▁internal	-10.9782
▁Norman	-10.9782
Ca	-10.9787
▁Margaret	-10.9787
▁Metropolitan	-10.9787
有効	-10.979
提携	-10.9791
ボル	-10.9791
▁Wy	-10.9792
▁Mis	-10.9792
▁beyond	-10.9794
▁refers	-10.9794
▁weapons	-10.9797
▁Cou	-10.98
▁17,	-10.9803
改善	-10.9805
イラスト	-10.9805
ランキング	-10.9805
iki	-10.9807
とり	-10.9808
克	-10.9808
sar	-10.9809
様子	-10.9809
tum	-10.9814
目標	-10.9818
▁ta	-10.982
モノ	-10.982
1968	-10.9822
▁fruit	-10.9823
戦士	-10.9825
▁森	-10.9826
豆	-10.9826
▁mind	-10.9827
ようになり	-10.9827
gin	-10.983
box	-10.9831
▁Tele	-10.9831
わずか	-10.9831
1988	-10.9831
▁safe	-10.9833
の国	-10.9833
▁critics	-10.9839
▁reduce	-10.9841
哲学	-10.9841
ked	-10.9841
ova	-10.9842
▁Kent	-10.9844
音声	-10.9844
包	-10.9845
怪獣	-10.9846
太平洋	-10.9847
加藤	-10.9848
▁Website	-10.9848
▁introduction	-10.985
宅	-10.985
▁Shin	-10.9851
判	-10.9853
拓	-10.9855
ライフ	-10.9856
lies	-10.9856
▁sets	-10.9857
就	-10.9858
プラン	-10.9858
▁Lawrence	-10.9859
▁identity	-10.9861
▁Mountains	-10.9863
が必要	-10.9864
を引き	-10.9864
多数の	-10.9866
、2011	-10.9866
リュー	-10.9866
規則	-10.9866
▁300	-10.9867
▁educational	-10.9868
民主党	-10.9869
▁Stan	-10.9869
準備	-10.9869
▁Imperial	-10.9869
▁row	-10.9869
▁critic	-10.987
Ta	-10.987
▁47	-10.987
▁tail	-10.9871
ドライバー	-10.9872
独自の	-10.9872
オーストリア	-10.9873
、2012	-10.9873
ジャンプ	-10.9876
lli	-10.9877
▁matter	-10.9878
▁Youth	-10.9879
▁Rich	-10.988
なども	-10.9882
CT	-10.9883
▁Exp	-10.9884
車の	-10.9884
RNA	-10.9884
onia	-10.9886
ダンス	-10.9891
▁express	-10.9893
▁(2004)	-10.9893
ッター	-10.9893
Un	-10.9895
uni	-10.9895
▁PC	-10.9895
ハル	-10.9896
知られている	-10.9897
▁(15	-10.9899
char	-10.9901
戦略	-10.9902
ø	-10.9902
▁Five	-10.9908
▁Belgium	-10.9909
▁×	-10.9912
▁boat	-10.9913
▁Brothers	-10.9913
▁Iraq	-10.9915
大阪府	-10.9917
滑	-10.9917
▁slightly	-10.9917
株式	-10.9919
走行	-10.9919
句	-10.9919
▁Sho	-10.9923
▁calls	-10.9926
▁experiment	-10.9927
▁reign	-10.9928
プロレス	-10.993
キャスター	-10.9932
ワールドカップ	-10.9933
▁commissioned	-10.9934
綾	-10.9934
▁Atlanta	-10.9934
▁negative	-10.9934
▁correct	-10.9935
ても	-10.9935
▁environmental	-10.9936
不足	-10.9936
のメンバー	-10.9937
▁Armenian	-10.9937
▁contrast	-10.9937
▁champions	-10.9937
▁rank	-10.9939
gro	-10.9941
▁Whit	-10.9941
vil	-10.9941
▁attacked	-10.9942
last	-10.9944
▁flag	-10.9944
Family	-10.9944
▁43	-10.9944
▁economy	-10.9945
▁神	-10.9945
lea	-10.9946
game	-10.9949
▁straight	-10.9951
lag	-10.9951
毎	-10.9952
★	-10.9953
場面	-10.9957
▁Plant	-10.9958
▁toward	-10.9958
対戦	-10.9959
tine	-10.996
▁MP	-10.996
無線	-10.996
近鉄	-10.9961
▁Mrs	-10.9961
▁Racing	-10.9962
▁die	-10.9962
▁climate	-10.9962
▁Alfred	-10.9964
ボディ	-10.9964
一族	-10.9965
lim	-10.9965
溶	-10.9965
のみで	-10.9967
大学の	-10.9968
うえ	-10.9969
ビット	-10.9971
who	-10.9973
テニス	-10.9974
chu	-10.9976
▁Mississippi	-10.9977
▁Personnel	-10.9977
▁Stewart	-10.9979
子が	-10.9981
▁abandoned	-10.9981
期待	-10.9982
藩主	-10.9982
▁connection	-10.9986
▁Dallas	-10.9986
検討	-10.9986
するもの	-10.9987
スカイ	-10.9988
以前は	-10.9989
話題	-10.999
ook	-10.999
try	-10.999
▁Genus	-10.9996
同社	-10.9996
eon	-10.9997
▁(2007)	-10.9997
抜け	-10.9999
発足	-11
プロデュース	-11.0002
(1989	-11.0002
追い	-11.0003
▁enter	-11.0004
▁Model	-11.0004
▁offices	-11.0009
転換	-11.0012
ingham	-11.0012
▁recognition	-11.0013
vor	-11.0013
anna	-11.0013
vision	-11.0014
自転車	-11.0015
弁護士	-11.0015
早く	-11.002
▁affect	-11.002
1930	-11.0021
と同じく	-11.0021
低下	-11.0023
アート	-11.0026
▁businesses	-11.0027
▁touchdown	-11.0028
判断	-11.003
▁Ce	-11.0032
解決	-11.0033
期の	-11.0033
▁mar	-11.0034
▁Heritage	-11.0036
itch	-11.0037
;"	-11.0037
維持	-11.0037
▁Johnny	-11.0037
に基づく	-11.0038
rr	-11.0039
本の	-11.0039
▁prize	-11.0041
サブ	-11.0042
▁Fal	-11.0042
幼稚園	-11.0043
▁emb	-11.0043
▁fashion	-11.0047
背景	-11.005
rup	-11.0053
ウルトラマン	-11.0054
殺人	-11.0054
替	-11.0056
▁McG	-11.0057
▁directors	-11.0058
▁1902	-11.0059
rice	-11.0059
ito	-11.0059
▁Roll	-11.0063
捨て	-11.0065
Com	-11.0067
その他の	-11.0069
当て	-11.0069
であること	-11.007
富山	-11.007
遅れ	-11.0071
▁Zi	-11.0071
▁Cultural	-11.0073
▁folk	-11.0073
すなわち	-11.0075
▁income	-11.0075
チョ	-11.0077
▁commission	-11.0077
▁write	-11.0079
ロゴ	-11.008
番組の	-11.0081
単独	-11.0081
?"	-11.0081
青森	-11.0082
▁represent	-11.0083
rang	-11.0083
作り	-11.0083
▁Helen	-11.0084
▁Singh	-11.0086
選出	-11.0087
まさ	-11.0087
染	-11.0087
▁receiving	-11.0088
現在では	-11.0089
会館	-11.0089
rod	-11.0089
including	-11.0091
▁herself	-11.0092
▁Ryan	-11.0093
姉妹	-11.0093
▁try	-11.0094
肩	-11.0094
CL	-11.0095
動き	-11.0095
の下	-11.0097
ていく	-11.0098
▁2012.	-11.0103
▁400	-11.0104
▁Mir	-11.0107
私立	-11.0107
薄	-11.011
▁Tower	-11.0112
ころ	-11.0112
▁agricultural	-11.0114
▁priest	-11.0114
諸国	-11.0115
DD	-11.0116
集合	-11.0118
JA	-11.0118
▁roll	-11.0119
NET	-11.012
助け	-11.012
王子	-11.0121
▁watch	-11.0122
化された	-11.0123
体の	-11.0123
性を	-11.0124
▁Tech	-11.0124
仏教	-11.0125
COM	-11.0128
向き	-11.0129
vid	-11.0129
ステーション	-11.0133
▁Ay	-11.0134
▁hired	-11.0134
▁Arch	-11.0136
▁Orthodox	-11.0139
▁maximum	-11.014
▁brief	-11.0142
慎	-11.0144
県道	-11.0144
▁slow	-11.0145
知識	-11.0147
▁heard	-11.0147
爆発	-11.0148
を果たした	-11.0148
ものを	-11.0149
たる	-11.0149
参戦	-11.0151
サラ	-11.0152
▁bear	-11.0152
再開	-11.0152
▁needs	-11.0155
oh	-11.0155
▁Type	-11.0155
度の	-11.0155
▁150	-11.0156
ides	-11.0157
▁mention	-11.016
▁Karl	-11.0161
暴	-11.0161
集中	-11.0161
全線	-11.0162
liter	-11.0162
tens	-11.0165
▁frame	-11.0168
lk	-11.0169
mount	-11.0169
権を	-11.017
▁Roy	-11.0171
規	-11.0173
▁Pal	-11.0173
シス	-11.0174
上下	-11.0175
▁京都	-11.0176
elo	-11.0176
rill	-11.0179
▁Has	-11.018
唯一	-11.018
、2003	-11.018
▁bit	-11.0181
▁northwest	-11.0181
▁Cricket	-11.0183
▁アル	-11.0184
▁Saturday	-11.0184
を用いて	-11.0184
レオ	-11.0184
HE	-11.0185
日記	-11.0186
東西	-11.0187
▁Athletics	-11.0187
▁rare	-11.0189
▁Railroad	-11.0189
半島	-11.019
▁Pin	-11.019
▁strength	-11.0191
硬	-11.0191
線が	-11.0191
とされた	-11.0192
が行われる	-11.0193
▁‘	-11.0193
耳	-11.0194
かれ	-11.0194
▁lands	-11.0195
▁contained	-11.0195
DC	-11.0197
柏	-11.0197
オーバー	-11.0198
日本で	-11.0198
▁Nar	-11.0199
▁eye	-11.0199
some	-11.0201
▁Athletic	-11.0202
▁finding	-11.0203
それは	-11.0203
イド	-11.0205
拡張	-11.0209
逃げ	-11.021
双	-11.0214
含まれ	-11.0214
ディレクター	-11.0215
▁existence	-11.0216
▁Bush	-11.0217
cat	-11.0219
▁Sportspeople	-11.022
の一覧	-11.0224
ヶ月	-11.0224
▁Prix	-11.0224
▁Stock	-11.0226
小野	-11.0227
浄	-11.0228
▁Sy	-11.023
▁Raj	-11.0231
に加え	-11.0231
1944	-11.0234
▁Auto	-11.0235
恩	-11.0237
▁auto	-11.024
▁Child	-11.024
▁Bernard	-11.0241
▁roads	-11.0242
ished	-11.0243
〜(	-11.0243
Sa	-11.0244
ウォー	-11.0245
▁junior	-11.0246
八幡	-11.0246
義務	-11.0247
蓮	-11.0248
相互	-11.0248
一般に	-11.0248
署	-11.0252
▁41	-11.0253
グレ	-11.0253
▁operate	-11.0253
広島県	-11.0254
tam	-11.0257
キュ	-11.0258
のアルバム	-11.0258
にもかかわらず	-11.0259
▁Romanian	-11.0259
その後も	-11.0259
作用	-11.0259
▁visual	-11.0263
指導者	-11.0264
ルイ	-11.0265
bat	-11.0265
ナレーション	-11.0265
▁mine	-11.0266
▁中国	-11.0266
▁message	-11.0268
▁fleet	-11.0268
KA	-11.0269
▁Dia	-11.0269
スパイ	-11.0273
労	-11.0274
セー	-11.0276
の姿	-11.0276
するための	-11.0278
▁2003.	-11.0278
▁behavior	-11.0279
ically	-11.028
rage	-11.028
▁increasing	-11.0281
roll	-11.0282
▁Off	-11.0282
を出	-11.0286
▁briefly	-11.0287
▁solution	-11.0288
ソニー	-11.0291
1946	-11.0292
phon	-11.0292
▁pages	-11.0294
機種	-11.0295
▁aged	-11.0296
▁Carr	-11.0297
sburg	-11.0297
phe	-11.0298
250	-11.0302
群馬県	-11.0304
の中心	-11.0304
▁Socorro	-11.0305
OC	-11.0308
▁laws	-11.031
提案	-11.031
▁turns	-11.031
1947	-11.0311
▁favor	-11.0312
any	-11.0314
Na	-11.0314
▁Just	-11.0314
▁Fra	-11.0315
▁Oak	-11.0315
awa	-11.0318
ヤン	-11.032
を表す	-11.0321
袋	-11.0321
▁temperature	-11.0322
▁Executive	-11.0322
lot	-11.0323
itt	-11.0323
▁grand	-11.0324
▁Princess	-11.0327
に由来する	-11.0327
▁purchase	-11.0328
作られた	-11.0329
gio	-11.033
市長	-11.0334
▁occur	-11.0334
ees	-11.0336
▁Bun	-11.0337
上記	-11.0339
を取得	-11.0342
▁Jam	-11.0342
▁wheel	-11.0342
GM	-11.0344
の女	-11.0345
コンビ	-11.0346
ミュージシャン	-11.0347
などがある	-11.0347
重量	-11.0348
▁maintained	-11.0349
統計	-11.0352
すべての	-11.0352
裁	-11.0353
やすい	-11.0357
▁(6	-11.0358
▁roof	-11.036
新田	-11.0361
インタビュー	-11.0363
ビッグ	-11.0364
▁Our	-11.0365
▁Peace	-11.0365
▁determined	-11.0366
▁independence	-11.0367
(2022	-11.0368
▁Az	-11.0368
途	-11.0371
▁Lou	-11.0372
aging	-11.0373
発言	-11.0373
cht	-11.0373
▁←	-11.0374
▁Jud	-11.0374
▁contributed	-11.0375
各国	-11.0375
5000	-11.0376
▁Stage	-11.0378
▁functions	-11.0378
渋谷	-11.0379
上昇	-11.0383
▁75	-11.0383
頃から	-11.0385
▁Studio	-11.0388
Cl	-11.0388
ハード	-11.0391
と考えられている	-11.0394
read	-11.0394
▁exist	-11.0397
結成	-11.0399
▁let	-11.04
▁Nova	-11.04
も多い	-11.04
国王	-11.0401
▁heavily	-11.0402
だろう	-11.0408
貴族	-11.041
テー	-11.0411
lf	-11.0413
▁cycle	-11.0414
▁institution	-11.0416
▁reflect	-11.0417
体育	-11.0417
微	-11.042
▁poly	-11.0422
当選	-11.0422
▁Horse	-11.0423
▁fast	-11.0423
▁作曲	-11.0424
▁AM	-11.0428
人で	-11.0429
状態で	-11.043
▁Trail	-11.043
▁doctor	-11.0432
▁animal	-11.0432
いく	-11.0433
BL	-11.0433
▁Mol	-11.0434
受賞	-11.0435
突	-11.0435
▁Broadway	-11.0436
▁scheme	-11.0438
身長	-11.044
▁causing	-11.044
▁Jimmy	-11.0441
峠	-11.0442
▁sale	-11.0442
-20	-11.0447
▁Common	-11.0447
▁DJ	-11.0447
勤務	-11.0448
▁Morgan	-11.0448
言い	-11.0449
監	-11.0451
▁collected	-11.0452
etic	-11.0453
▁parallel	-11.0453
▁literary	-11.0455
たちは	-11.0456
hand	-11.0459
武田	-11.0461
の使用	-11.0461
1987	-11.0465
▁Gary	-11.0466
▁decades	-11.0467
tier	-11.0468
困難	-11.0468
▁Milan	-11.0469
▁国際	-11.0469
▁sun	-11.047
mos	-11.0471
▁Gate	-11.0471
電気鉄道	-11.0473
グロ	-11.0473
▁LINEAR	-11.0473
NT	-11.0475
AB	-11.0477
注意	-11.0478
大賞	-11.048
▁Din	-11.048
の声	-11.048
▁chance	-11.0484
▁Euro	-11.0484
▁2002.	-11.0485
▁advantage	-11.0487
立つ	-11.0488
aro	-11.0488
同様	-11.0489
▁Dog	-11.049
ising	-11.0491
▁2000.	-11.0491
濃	-11.0493
▁平	-11.0494
行われ	-11.0494
▁Rio	-11.0496
▁combination	-11.0498
▁Puerto	-11.0498
地帯	-11.0498
▁Once	-11.05
▁Native	-11.0502
▁App	-11.0503
-16	-11.0506
▁Regulations	-11.0507
消費	-11.0509
▁Global	-11.0509
▁Donald	-11.051
▁Ian	-11.051
装甲	-11.051
▁Mai	-11.051
▁Control	-11.0511
すべき	-11.0512
▁Thi	-11.0512
▁Russell	-11.0513
特定の	-11.0515
奉	-11.0516
▁reception	-11.0517
それが	-11.0517
航空機	-11.0517
潜	-11.0518
uma	-11.0519
▁trying	-11.0519
▁Reception	-11.0522
▁Christopher	-11.0523
長期	-11.0523
▁resistance	-11.0525
▁1997,	-11.0525
CR	-11.0527
▁bodies	-11.0529
BI	-11.053
▁CO	-11.0531
▁replace	-11.0533
▁adapted	-11.0533
和田	-11.0534
斉	-11.0537
しき	-11.0538
マリア	-11.0538
eli	-11.054
場合には	-11.0541
-15	-11.0542
▁Number	-11.0543
と結婚	-11.0545
▁Jordan	-11.0545
描写	-11.0549
についても	-11.0549
▁adaptation	-11.0553
かく	-11.0556
▁walls	-11.0558
幻	-11.0558
▁Support	-11.0558
レンジャー	-11.0559
ーム	-11.0559
▁civilian	-11.056
▁水	-11.056
▁establishment	-11.0565
2.5	-11.0566
現場	-11.0569
▁Pri	-11.0571
香港	-11.0573
▁Bol	-11.0574
▁doing	-11.0574
▁Walker	-11.0574
合計	-11.0575
▁southeast	-11.0575
▁pan	-11.0576
▁Hollywood	-11.0577
▁finishing	-11.0577
▁コ	-11.0577
▁55	-11.0579
歴	-11.0579
段階	-11.0583
▁Row	-11.0584
参照	-11.0586
解放	-11.0587
pon	-11.0588
NC	-11.059
lop	-11.059
金融	-11.059
▁NBA	-11.059
▁reasons	-11.059
その後は	-11.0593
▁suburb	-11.0593
▁improve	-11.0594
▁Palace	-11.0594
▁soundtrack	-11.0595
名誉	-11.0596
▁Malaysia	-11.0598
べき	-11.0599
よい	-11.0603
▁classic	-11.0605
大名	-11.0605
に入る	-11.0606
▁pieces	-11.0606
▁squadron	-11.0607
していく	-11.0607
▁sought	-11.0607
finals	-11.0609
▁syn	-11.0609
毎週	-11.061
▁Morris	-11.061
▁starts	-11.0612
事を	-11.0613
茨城県	-11.0613
▁OF	-11.0613
HC	-11.0614
堺	-11.0615
過ぎ	-11.0615
〉)※	-11.0616
tant	-11.0616
!"	-11.0616
▁46	-11.0617
琴	-11.0619
生命	-11.0621
風の	-11.0622
中世	-11.0624
救	-11.0624
body	-11.0625
ブレーキ	-11.0626
Fi	-11.0626
乗車	-11.0627
ギャ	-11.0627
スル	-11.0628
翔	-11.0628
物を	-11.0628
自らの	-11.0629
▁occurs	-11.0629
▁feel	-11.063
スポンサー	-11.063
So	-11.0631
呼称	-11.0632
原因	-11.0632
▁José	-11.0633
▁Hen	-11.0638
循環	-11.064
tsu	-11.064
▁coin	-11.064
たもの	-11.064
〔	-11.0644
▁Market	-11.0644
武蔵	-11.0645
ashi	-11.0645
rey	-11.0646
▁beach	-11.0646
ダイヤ改正	-11.0646
〕	-11.0649
bs	-11.0651
▁ver	-11.0652
="#	-11.0654
フォード	-11.0655
▁Rod	-11.0656
▁establish	-11.0658
自身が	-11.0659
▁NCAA	-11.066
▁1880	-11.0661
▁carry	-11.0663
▁Know	-11.0663
▁tend	-11.0664
▁feat	-11.0667
が出	-11.0669
gun	-11.067
cor	-11.067
押	-11.067
▁operator	-11.0671
▁Disney	-11.0673
▁あ	-11.0676
▁Was	-11.0676
▁Champion	-11.0678
▁音楽	-11.0679
▁reaching	-11.0679
行われる	-11.0679
▁jump	-11.0679
▁(2003)	-11.068
pop	-11.0683
放映	-11.0683
▁hits	-11.0684
幹	-11.0684
(1988	-11.0684
▁Horn	-11.0686
状の	-11.0686
Te	-11.0686
あと	-11.0686
占領	-11.0687
▁Dal	-11.0687
oz	-11.0687
tract	-11.0688
▁Week	-11.0688
的には	-11.0688
完了	-11.069
▁Writers	-11.0692
さま	-11.0697
▁Kelly	-11.0697
ネー	-11.0699
ways	-11.07
学習	-11.07
level	-11.0701
▁Conservative	-11.0701
▁Evans	-11.0702
▁Work	-11.0706
▁greatest	-11.0707
uf	-11.0709
グラン	-11.0709
▁Farm	-11.071
pra	-11.0712
翻訳	-11.0713
大学院	-11.0715
艇	-11.0716
向けの	-11.0717
全く	-11.0717
▁Section	-11.0718
ould	-11.0719
相当	-11.072
▁habitat	-11.0721
地下鉄	-11.0722
eur	-11.0723
熟	-11.0726
▁animated	-11.0726
plo	-11.073
ディスク	-11.073
▁dynasty	-11.0731
番台	-11.0731
と呼ばれ	-11.0734
ゴルフ	-11.0735
bul	-11.0737
中島	-11.0739
河内	-11.0739
▁patients	-11.074
疑	-11.074
▁Ski	-11.0742
▁lawyer	-11.0743
ij	-11.0744
IM	-11.0745
前述の	-11.0747
▁Colonel	-11.075
模様	-11.0751
戦艦	-11.0753
▁alone	-11.0753
予備	-11.0754
▁Soccer	-11.0754
▁Crown	-11.0757
▁Hungary	-11.0758
put	-11.0759
▁catch	-11.0762
▁ju	-11.0762
▁Jazz	-11.0763
主題歌	-11.0763
▁standards	-11.0765
").	-11.0765
ロウ	-11.0766
▁Ukraine	-11.0768
▁Judge	-11.077
▁ST	-11.0774
▁answer	-11.0775
数が	-11.0777
▁clean	-11.0777
▁下	-11.0777
ł	-11.0778
ロール	-11.0779
統治	-11.078
▁min	-11.0781
IR	-11.0781
整	-11.0782
trop	-11.0783
松平	-11.0785
に移転	-11.0786
▁worldwide	-11.0787
▁supporting	-11.0788
▁rich	-11.0789
元プロ野球選手	-11.0794
▁1996,	-11.0794
ウェル	-11.0797
▁1898	-11.08
▁engaged	-11.08
▁consisting	-11.0801
丈	-11.0802
▁Upper	-11.0803
▁黒	-11.0803
動作	-11.0804
即	-11.0805
つまり	-11.0806
は大	-11.0806
停	-11.0807
ウン	-11.0808
▁Denmark	-11.0809
▁Sab	-11.081
pher	-11.0811
ウルトラ	-11.0812
(1987	-11.0814
▁involving	-11.0814
▁observed	-11.0815
▁installed	-11.0816
川の	-11.0819
uv	-11.082
ott	-11.0821
▁successfully	-11.0822
▁translated	-11.0822
高田	-11.0822
gla	-11.0822
▁representing	-11.0824
▁serious	-11.0824
▁quite	-11.0825
リニューアル	-11.0825
刻	-11.0826
応援	-11.0828
にする	-11.083
fall	-11.0831
1986	-11.0832
eau	-11.0832
侵攻	-11.0834
ened	-11.0834
チャン	-11.0835
yu	-11.0838
▁1897	-11.0838
▁representative	-11.084
ctic	-11.0841
▁incorporated	-11.0842
▁closely	-11.0843
分子	-11.0844
▁sum	-11.0845
▁1896	-11.0847
操	-11.0849
0.0	-11.0849
▁Seattle	-11.0849
好き	-11.0851
VI	-11.0852
ヨー	-11.0853
▁Honours	-11.0854
が完成	-11.0854
▁Express	-11.0856
▁spell	-11.0856
▁Mix	-11.0857
▁Low	-11.0858
▁poll	-11.0859
▁Lau	-11.0859
▁monument	-11.0865
▁2001.	-11.0865
裁判所	-11.0867
昼	-11.0867
loc	-11.0871
▁routes	-11.0871
▁Beck	-11.0873
DP	-11.0876
▁Brook	-11.0876
帳	-11.0876
▁adjacent	-11.0876
名義	-11.0877
▁Blues	-11.0879
▁franchise	-11.088
抵抗	-11.0881
▁defensive	-11.0883
zen	-11.0883
ids	-11.0885
▁サ	-11.0886
▁twelve	-11.0888
あなた	-11.0888
してしまう	-11.0891
hold	-11.0893
▁resigned	-11.0894
▁throw	-11.0896
assi	-11.0898
緒	-11.0899
、2014	-11.09
神奈川県	-11.09
投入	-11.09
finite	-11.09
消滅	-11.0901
同様に	-11.0902
卒業後	-11.0902
ologist	-11.0904
南北	-11.0905
フラン	-11.0906
連隊	-11.0907
MG	-11.0908
▁65	-11.091
omi	-11.0911
zh	-11.0912
律	-11.0915
▁mi	-11.0915
▁Even	-11.0915
▁Front	-11.0915
▁Defense	-11.0916
▁regarding	-11.0918
事態	-11.0918
▁Spi	-11.0918
放送された	-11.0918
衆議院議員	-11.092
専攻	-11.0922
かず	-11.0924
▁churches	-11.0926
に伴う	-11.0927
いか	-11.093
mond	-11.093
▁Blood	-11.0932
態	-11.0933
ゼロ	-11.0934
海上	-11.0934
▁photo	-11.0934
▁Fr	-11.0935
sim	-11.0938
▁Edinburgh	-11.0939
持つ	-11.0941
▁debate	-11.0942
chin	-11.0944
事情	-11.0944
▁Kings	-11.0946
▁Thompson	-11.0946
消防	-11.0946
▁Base	-11.0947
▁guns	-11.0947
をはじめ	-11.0947
▁ride	-11.0948
rock	-11.0948
▁SC	-11.0948
上位	-11.0949
実況	-11.095
蒲	-11.0955
全員	-11.0957
▁Victor	-11.0957
すでに	-11.0959
living	-11.0959
闇	-11.096
されること	-11.096
nam	-11.0963
▁entirely	-11.0963
モリ	-11.0967
末期	-11.0967
▁Franklin	-11.0968
▁Record	-11.0969
▁laid	-11.097
を使う	-11.0971
天使	-11.0971
▁steam	-11.0972
▁focused	-11.0974
▁花	-11.0974
神話	-11.0974
▁powers	-11.0975
▁cricket	-11.0975
任務	-11.0977
っていない	-11.0978
▁Guy	-11.0978
My	-11.0979
▁wine	-11.0979
▁getting	-11.098
ストラ	-11.0981
aba	-11.0981
▁injured	-11.0981
▁Secret	-11.0982
子会社	-11.0986
Th	-11.0986
審	-11.0987
スクール	-11.0987
伴	-11.099
▁proved	-11.0991
▁Cooper	-11.0993
lat	-11.0993
オープニング	-11.0994
ホワイト	-11.0995
▁Finland	-11.0997
▁Ward	-11.0998
▁1899	-11.1001
の関係	-11.1002
▁talent	-11.1003
パイロット	-11.1005
▁Hampshire	-11.1005
▁developing	-11.1007
卓	-11.1008
▁Communist	-11.101
登場する	-11.101
atory	-11.1011
▁partnership	-11.1011
▁instance	-11.1012
人形	-11.1013
1985	-11.1014
▁Campbell	-11.1014
たら	-11.1015
ペル	-11.1017
麗	-11.1018
軍は	-11.1019
л	-11.1019
▁residential	-11.1019
▁Barr	-11.102
▁Lane	-11.102
▁techniques	-11.1021
経緯	-11.1021
▁(2002)	-11.1022
▁Years	-11.1022
▁(),	-11.1023
当該	-11.1025
▁fla	-11.1026
スラ	-11.1029
阪急	-11.103
耐	-11.103
▁contest	-11.1031
シアター	-11.1031
▁Stanley	-11.1032
▁publisher	-11.1034
tell	-11.1035
▁panel	-11.1035
言う	-11.1035
▁Kennedy	-11.1038
オート	-11.1039
1984	-11.1039
を用いた	-11.104
んでいた	-11.1041
▁sand	-11.1042
▁Pr	-11.1044
統	-11.1046
煙	-11.1047
リュ	-11.1047
武装	-11.1048
▁si	-11.1048
uka	-11.1049
▁variant	-11.105
▁tries	-11.1051
されない	-11.1051
ちゃ	-11.1053
ABC	-11.1054
▁stores	-11.1054
cum	-11.1056
方の	-11.1056
comp	-11.1058
うた	-11.1059
ピア	-11.1059
verse	-11.1059
単行本	-11.1061
▁Yorkshire	-11.1064
それぞれの	-11.1066
近年	-11.1067
cen	-11.1068
▁2013.	-11.1069
少し	-11.107
rush	-11.107
▁drivers	-11.1072
▁provision	-11.1074
1967	-11.1075
続いて	-11.1077
南海	-11.1078
▁camera	-11.1079
rank	-11.1079
人と	-11.108
手段	-11.1082
iling	-11.1082
▁add	-11.1083
長官	-11.1083
補助	-11.1086
▁Educational	-11.1087
arm	-11.1087
、2002	-11.1093
▁phone	-11.1094
mini	-11.1095
▁ruled	-11.1098
措置	-11.1099
白い	-11.11
吸	-11.1101
▁faced	-11.1103
記者	-11.1105
防止	-11.1106
▁Clo	-11.1107
▁Urban	-11.1107
は約	-11.1109
の企業	-11.1112
と述べている	-11.1113
▁factory	-11.1113
ush	-11.1114
▁Woman	-11.1115
の息子	-11.1117
▁Code	-11.1118
悪魔	-11.1118
ras	-11.1118
▁Ang	-11.1119
▁edited	-11.112
フィルム	-11.112
▁Barry	-11.1121
する事	-11.1121
外国人	-11.1123
uit	-11.1124
▁plane	-11.1124
衛	-11.1124
mail	-11.1126
▁ensure	-11.1126
▁offering	-11.1126
▁Wright	-11.1127
壊	-11.1127
▁occupation	-11.1128
に参加	-11.1129
の意	-11.113
▁chemical	-11.1131
埼玉県	-11.1132
恒	-11.1133
北陸	-11.1134
▁seems	-11.1138
▁passengers	-11.1138
MB	-11.1138
▁Hil	-11.1139
で行われた	-11.1139
▁Voice	-11.114
勲	-11.1141
東洋	-11.1142
輸入	-11.1142
▁op	-11.1142
絶対	-11.1143
マッチ	-11.1145
▁Rights	-11.1145
▁http	-11.1145
▁Century	-11.1148
傾向	-11.1149
▁Rangers	-11.1149
に属する	-11.115
梨	-11.1151
劣	-11.1151
otic	-11.1152
bow	-11.1154
▁Food	-11.1154
ているが	-11.1154
pha	-11.1155
▁Rick	-11.1156
、2013	-11.1157
指名	-11.1158
▁Romania	-11.1158
耕	-11.1161
エース	-11.1162
▁Ukrainian	-11.1163
戦闘機	-11.1163
劇団	-11.1164
zon	-11.1167
係	-11.1169
▁Fin	-11.1169
▁scholar	-11.1169
iko	-11.1169
▁Wayne	-11.117
スウェーデン	-11.1171
フェル	-11.1172
構想	-11.1173
▁VI	-11.1175
▁Andy	-11.1175
書籍	-11.1175
師団	-11.1177
lem	-11.1177
メール	-11.1178
▁Penn	-11.1178
▁core	-11.118
活	-11.1182
▁31,	-11.1183
rough	-11.1184
▁Austin	-11.1185
徳川	-11.1187
▁Apple	-11.1187
(10	-11.1193
▁custom	-11.1194
▁Father	-11.1194
tress	-11.1197
▁Shah	-11.1198
▁formal	-11.1198
皆	-11.1199
回の	-11.12
した場合	-11.1201
▁comment	-11.1202
GI	-11.1202
▁Argentine	-11.1203
omy	-11.1207
形成	-11.121
▁Rat	-11.121
暗殺	-11.1211
▁expression	-11.1211
igan	-11.1211
120	-11.1212
eller	-11.1215
▁Baker	-11.1215
▁Hunter	-11.1215
far	-11.1216
現地	-11.1216
関数	-11.1218
ffer	-11.1218
上り	-11.122
▁expressed	-11.1223
料金	-11.1223
▁bottom	-11.1224
▁consider	-11.1225
fect	-11.1225
緊急	-11.1226
用いられる	-11.1226
取材	-11.1227
▁transition	-11.1227
リズム	-11.123
解釈	-11.123
▁(2001)	-11.1231
現実	-11.1232
uli	-11.1232
▁belief	-11.1233
連携	-11.1233
▁Syn	-11.1234
比較	-11.1235
鑑	-11.1235
フー	-11.1236
▁proposal	-11.1236
▁Primary	-11.1236
▁wild	-11.1237
つつ	-11.1237
▁influenced	-11.1238
iva	-11.1239
千葉県	-11.1239
▁Players	-11.124
趣味	-11.1243
共演	-11.1244
番線	-11.1245
やや	-11.1245
▁52	-11.1247
(11	-11.1247
▁Tam	-11.1247
▁Av	-11.1248
▁Vancouver	-11.1248
わず	-11.1252
充	-11.1252
▁SA	-11.1253
山形	-11.1253
陰	-11.1254
▁Kur	-11.1259
大野	-11.1259
▁orders	-11.126
high	-11.126
コロ	-11.126
DF	-11.1262
表面	-11.1262
最多	-11.1265
~	-11.1265
▁Hit	-11.1265
リオン	-11.1265
日放送	-11.1267
3,000	-11.1267
地の	-11.1273
▁door	-11.1274
▁singing	-11.1274
-11	-11.1275
、2015	-11.1276
対抗	-11.1277
財政	-11.1278
▁Then	-11.1278
▁Jerry	-11.1278
▁fer	-11.128
従来	-11.128
▁dry	-11.128
(7	-11.1281
イギリスの	-11.1281
▁invited	-11.1282
▁Gla	-11.1284
▁Beat	-11.1284
付属	-11.1286
▁CA	-11.1292
月より	-11.1293
論文	-11.1293
▁Jason	-11.1293
▁Birmingham	-11.1296
▁scenes	-11.1301
▁limit	-11.1303
▁composers	-11.1304
山崎	-11.1306
▁Energy	-11.1306
を導入	-11.1306
strict	-11.1307
▁championships	-11.1308
いった	-11.1309
行われた	-11.1309
▁arm	-11.1309
▁pitch	-11.131
人間の	-11.131
fri	-11.1312
続けた	-11.1313
awn	-11.1313
廃止された	-11.1314
価値	-11.1314
小説家	-11.1315
core	-11.1315
▁Robin	-11.1318
▁Article	-11.1318
函館	-11.1318
オリ	-11.1319
キハ	-11.132
▁railroad	-11.1321
の問題	-11.1321
を得る	-11.1321
メガ	-11.1321
cept	-11.1321
▁Populate	-11.1322
たちが	-11.1322
パイ	-11.1322
者を	-11.1325
紀元前	-11.1328
宮城県	-11.1329
nov	-11.133
▁pitcher	-11.133
神宮	-11.133
ement	-11.133
▁bands	-11.1332
-21	-11.1333
▁Fish	-11.1333
福島県	-11.1333
液	-11.1334
alis	-11.1335
1964	-11.1336
▁Convention	-11.1336
Hi	-11.1339
▁cm	-11.134
▁funding	-11.134
1940	-11.134
▁ceremony	-11.134
ターン	-11.134
▁islands	-11.1342
▁Lower	-11.1344
▁Marie	-11.1345
inter	-11.1347
shaped	-11.1349
王座	-11.1349
▁松	-11.135
拝	-11.1351
vet	-11.1353
ui	-11.1353
軍人	-11.1353
縮	-11.1353
縦	-11.1354
even	-11.1355
焼き	-11.1357
▁Thus	-11.1359
▁causes	-11.1359
▁Brooklyn	-11.136
▁McK	-11.1361
辻	-11.1362
去	-11.1363
社員	-11.1364
(1986	-11.1368
tical	-11.1368
の結果	-11.1369
ages	-11.137
ドラゴン	-11.1371
▁session	-11.1372
▁Digital	-11.1374
グランプリ	-11.1374
hard	-11.1374
▁option	-11.1375
最初に	-11.1378
▁Broadcasting	-11.1378
▁garden	-11.1379
▁ways	-11.138
take	-11.1382
同時	-11.1383
▁Gill	-11.1383
▁voted	-11.1383
▁(;	-11.1385
▁東京都	-11.1385
が担当	-11.1386
▁extend	-11.1387
▁Box	-11.1389
LS	-11.1389
手法	-11.1389
▁Dev	-11.139
アクセス	-11.1391
▁harm	-11.1392
の番組	-11.1392
合格	-11.1392
▁sections	-11.1393
ウィリアム	-11.1394
gna	-11.1397
▁hour	-11.1398
▁regarded	-11.1398
コミックス	-11.1399
▁NA	-11.1401
▁describes	-11.1402
▁Scout	-11.1402
▁earliest	-11.1403
離脱	-11.1404
▁Capital	-11.1408
来た	-11.1409
寝	-11.1412
▁Note	-11.1414
福井	-11.1414
▁planet	-11.1414
ガラス	-11.1414
▁Bha	-11.1414
の一種	-11.1417
広場	-11.1418
それまで	-11.142
山口県	-11.142
▁spirit	-11.1423
▁Agency	-11.1423
▁Computer	-11.1425
かし	-11.1428
ジェイ	-11.1431
▁dates	-11.1431
▁aim	-11.1433
▁Zu	-11.1435
▁tall	-11.1435
▁actual	-11.1435
▁participate	-11.1435
呂	-11.1436
活用	-11.1436
wed	-11.1436
phi	-11.144
▁【	-11.1441
▁twin	-11.1442
▁improved	-11.1444
いくつかの	-11.1444
についての	-11.1445
▁scholars	-11.1446
愛知県	-11.1447
貿易	-11.145
ヤング	-11.145
▁brown	-11.1451
▁joining	-11.1452
高く	-11.1452
ミル	-11.1452
ature	-11.1452
ホル	-11.1453
残る	-11.1453
later	-11.1456
世紀日本の	-11.146
▁1895	-11.1461
▁Soul	-11.1461
締結	-11.1462
▁interior	-11.1463
の母	-11.1464
adi	-11.1468
▁conf	-11.1468
tty	-11.1468
を使用する	-11.1468
届	-11.147
▁southwest	-11.1471
資	-11.1471
ボーカル	-11.1471
▁Graham	-11.1472
▁equivalent	-11.1472
50,000	-11.1476
強制	-11.1477
佐々木	-11.1477
▁Rabbi	-11.148
▁homes	-11.148
○	-11.1483
kel	-11.1484
斎	-11.1486
ann	-11.1486
▁broken	-11.1487
ドロ	-11.1489
の妻	-11.149
▁sin	-11.1491
労働者	-11.1491
▁(1)	-11.1491
ティン	-11.1492
▁Alumni	-11.1492
朝の	-11.1493
以前の	-11.1494
▁manage	-11.1496
(1985	-11.1497
の際	-11.1498
▁fictional	-11.1499
くる	-11.1499
1965	-11.15
▁Are	-11.15
▁vocal	-11.1502
に入り	-11.1502
法の	-11.1503
illo	-11.1503
ターミナル	-11.1503
小学館	-11.1507
▁Len	-11.1508
箇所	-11.1509
▁retail	-11.151
運賃	-11.1512
テロ	-11.1514
▁fort	-11.1514
ンド	-11.1514
キロ	-11.1515
したのは	-11.1516
エジプト	-11.1517
▁landing	-11.1518
じょう	-11.1521
認められ	-11.1522
▁Chamber	-11.1522
▁Cas	-11.1522
守護	-11.1523
歳で	-11.1523
sville	-11.1524
▁pioneer	-11.1524
行く	-11.1524
▁specifically	-11.1526
▁Nelson	-11.1527
ota	-11.1528
育成	-11.1528
ş	-11.1529
タクシー	-11.1529
ガイド	-11.1531
政党	-11.1532
▁Daily	-11.1533
▁Utah	-11.1534
▁Hunt	-11.1535
▁Chile	-11.1538
ニック	-11.1538
PL	-11.1538
1953	-11.1539
▁白	-11.1539
▁Gulf	-11.154
プラス	-11.1541
bed	-11.1543
歌詞	-11.1543
買	-11.1543
emi	-11.1544
旨	-11.1544
、2001	-11.1544
▁opinion	-11.1544
▁Ji	-11.1545
大宮	-11.1546
▁Qui	-11.1546
KI	-11.1547
荷	-11.1547
外国	-11.1548
を搭載	-11.1549
否定	-11.155
▁possibly	-11.155
where	-11.1552
チームの	-11.1553
▁Construction	-11.1554
▁Vas	-11.1554
▁app	-11.1555
の女性	-11.1556
災害	-11.1556
通行	-11.1557
▁decade	-11.1558
を用いる	-11.1558
朝日放送	-11.1558
▁collaboration	-11.1559
性が	-11.156
レル	-11.1561
?」	-11.1562
などは	-11.1566
を持っている	-11.1566
ここで	-11.1569
TP	-11.157
すぐ	-11.157
▁Fan	-11.1572
▁distinct	-11.1573
▁Marshall	-11.1574
開校	-11.1574
岐阜	-11.1575
▁LGBT	-11.1578
側面	-11.158
ベトナム	-11.1581
Vi	-11.1581
▁Movie	-11.1582
する場合	-11.1583
amo	-11.1585
▁世界	-11.1586
▁scheduled	-11.1586
▁god	-11.1587
前作	-11.1587
▁applications	-11.1587
ンの	-11.1588
場合がある	-11.1588
劉	-11.1588
前田	-11.159
結合	-11.159
▁courses	-11.159
▁separated	-11.1591
▁importance	-11.1594
インターチェンジ	-11.1596
▁rooms	-11.1597
▁gr	-11.1597
▁Constitution	-11.1597
周囲	-11.1597
▁controlled	-11.1598
らなかった	-11.1598
掛	-11.1599
▁Vin	-11.1604
▁(2008)	-11.1604
目に	-11.1606
▁Liverpool	-11.1606
空軍	-11.1607
▁duty	-11.1607
スは	-11.1607
青春	-11.1607
rist	-11.1608
沈	-11.1609
▁51	-11.1609
▁objects	-11.161
徒歩	-11.1611
▁drawing	-11.1611
抜	-11.1611
研	-11.1612
▁typical	-11.1613
such	-11.1613
anger	-11.1613
▁capture	-11.1615
創刊	-11.1619
▁protein	-11.1621
TH	-11.1623
業者	-11.1623
▁rain	-11.1624
橋本	-11.1627
つけ	-11.1629
になっていた	-11.1629
▁obtain	-11.1634
ギー	-11.1634
une	-11.1634
車線	-11.1636
▁(7	-11.1637
執行	-11.1639
▁Ship	-11.164
込	-11.164
星の	-11.164
▁Magic	-11.164
複	-11.164
使用されている	-11.1641
動画	-11.1641
ž	-11.1641
MT	-11.1642
▁clan	-11.1643
▁destroy	-11.1644
ヒーロー	-11.1645
▁gang	-11.165
たため	-11.1651
込まれ	-11.1651
tics	-11.1652
狭	-11.1653
▁flying	-11.1653
アム	-11.1656
、2016	-11.1656
感じ	-11.1656
▁producing	-11.1659
HP	-11.166
市町村	-11.166
▁(10	-11.1661
膜	-11.1661
1920	-11.1662
tile	-11.1663
衝突	-11.1664
と改称	-11.1665
アイテム	-11.1666
▁Carter	-11.1668
▁Robinson	-11.1668
ヴァル	-11.1669
性質	-11.1669
▁category	-11.1671
▁hope	-11.1672
num	-11.1672
▁grave	-11.1673
KE	-11.1675
▁Rail	-11.1675
feld	-11.1676
夏の	-11.1676
指示	-11.1677
▁trained	-11.1679
ロング	-11.1679
1949	-11.168
rn	-11.1681
▁easily	-11.1682
▁Mann	-11.1682
鎌倉	-11.1687
岡田	-11.1689
▁Ran	-11.169
に登場	-11.1691
版では	-11.1691
Ex	-11.1692
があるが	-11.1693
▁Gene	-11.1693
▁agree	-11.1694
ダブル	-11.1694
▁funds	-11.1696
ssel	-11.1697
mut	-11.1697
岐阜県	-11.1698
▁notice	-11.1698
人民	-11.1699
▁justice	-11.1701
▁violence	-11.1704
相談	-11.1706
▁notably	-11.1707
THE	-11.1707
エンディング	-11.1708
▁Kon	-11.171
▁stands	-11.171
pit	-11.171
ロボ	-11.171
▁soil	-11.1711
akh	-11.1711
行った	-11.1712
å	-11.1712
を結成	-11.1713
▁employees	-11.1713
俺	-11.1714
年以降	-11.1717
岩手県	-11.172
▁Vel	-11.172
ズの	-11.1721
泊	-11.1721
が特徴	-11.1722
esh	-11.1724
シュー	-11.1725
OT	-11.1725
磯	-11.1727
を装備	-11.1729
烈	-11.1729
冊	-11.173
zan	-11.173
売り	-11.1731
▁(2000)	-11.1731
線路	-11.1731
▁BS	-11.1731
▁motion	-11.1732
委託	-11.1732
スティ	-11.1732
aceae	-11.1733
やがて	-11.1733
の歌	-11.1736
彼ら	-11.1737
他に	-11.1739
フライ	-11.1739
▁wear	-11.174
将棋	-11.1742
poli	-11.1743
変身	-11.1743
フロント	-11.1745
率いる	-11.1745
▁purposes	-11.1745
したという	-11.1746
asi	-11.1746
國	-11.1747
輔	-11.1748
▁1995,	-11.1748
omb	-11.1748
▁send	-11.1748
▁skills	-11.175
直通	-11.175
▁Susan	-11.1751
ごう	-11.1752
▁Berg	-11.1752
▁Come	-11.1752
できなかった	-11.1752
の森	-11.1754
▁females	-11.1754
▁真	-11.1756
web	-11.1757
▁feed	-11.1757
▁Fund	-11.1758
に所属	-11.1758
エリ	-11.1758
コレクション	-11.176
▁heads	-11.176
入団	-11.176
特集	-11.1761
番目の	-11.1761
芸能	-11.1761
毎日	-11.1763
CB	-11.1763
▁gate	-11.1764
▁tu	-11.1765
▁neuro	-11.1766
▁images	-11.1769
きょう	-11.177
待	-11.177
ブログ	-11.1772
辰	-11.1773
▁Lost	-11.1773
▁Sara	-11.1774
ブルク	-11.1775
▁lay	-11.1775
解体	-11.1775
メー	-11.1778
▁Discography	-11.1778
登場した	-11.1779
▁Bow	-11.1779
垣	-11.178
▁Buffalo	-11.178
▁crash	-11.1781
ín	-11.1782
▁Bri	-11.1782
ジェット	-11.1784
猛	-11.1785
▁opportunity	-11.1785
▁agency	-11.1785
▁flu	-11.1786
▁weather	-11.1786
▁shore	-11.1787
▁Adams	-11.1787
▁Dy	-11.1789
(1983	-11.1789
陵	-11.179
▁determine	-11.1791
vit	-11.1792
▁Indonesia	-11.1795
▁philosophy	-11.1796
サム	-11.1796
▁bowl	-11.18
磨	-11.18
▁Orleans	-11.1801
▁expedition	-11.1801
All	-11.1801
卒	-11.1804
▁drop	-11.1805
▁Trophy	-11.1806
に編入	-11.1806
▁items	-11.1807
蘭	-11.1807
▁Math	-11.1807
▁seek	-11.1809
アド	-11.1809
▁device	-11.1809
н	-11.1811
rain	-11.1812
始め	-11.1812
fire	-11.1812
▁starred	-11.1815
▁lock	-11.1816
▁Through	-11.1818
▁crowd	-11.1818
職業	-11.182
▁grounds	-11.1821
者に	-11.1821
公共	-11.1822
赤い	-11.1824
▁Challenge	-11.1824
pus	-11.1824
wal	-11.1824
教室	-11.1825
▁Ry	-11.1825
体験	-11.1827
▁concluded	-11.183
Qu	-11.183
▁plate	-11.1832
春日	-11.1834
▁successor	-11.1836
振興	-11.1837
▁Bible	-11.1843
承	-11.1844
描	-11.1846
位の	-11.1848
それら	-11.1848
fold	-11.1849
▁Bio	-11.1851
はなく	-11.1852
▁tele	-11.1852
▁Get	-11.1853
HD	-11.1854
mil	-11.1855
VS	-11.1855
▁Barn	-11.1856
ラスト	-11.1856
を開催	-11.1856
フジ	-11.1856
年開業	-11.1857
self	-11.1857
▁Kil	-11.1858
▁note	-11.1858
▁context	-11.186
GB	-11.1861
uro	-11.1863
モーター	-11.1864
メキシコ	-11.1864
hop	-11.1865
▁Private	-11.1865
響	-11.1865
育て	-11.1865
▁argued	-11.1866
罰	-11.1867
▁Murray	-11.1868
祭り	-11.1868
結び	-11.1869
じゃ	-11.187
▁Anton	-11.1871
Don	-11.1871
ür	-11.1871
多い	-11.1872
▁regularly	-11.1872
▁leads	-11.1873
女王	-11.1873
栽培	-11.1875
▁divisions	-11.1876
ois	-11.1876
hawk	-11.1877
乗り入れ	-11.1877
賛	-11.1878
gas	-11.1879
▁Belgian	-11.188
に至る	-11.1881
hall	-11.1882
▁Training	-11.1883
に戻	-11.1883
▁operates	-11.1883
ース	-11.1885
トロン	-11.1885
浴	-11.1885
▁lift	-11.1886
信仰	-11.1886
▁anniversary	-11.1888
▁terminus	-11.1888
eus	-11.1888
hai	-11.1889
▁アメリカ	-11.189
警	-11.189
プレミアム	-11.1891
漁	-11.1891
▁goods	-11.1892
古典	-11.1893
スピード	-11.1893
区分	-11.1894
▁survived	-11.1895
東急	-11.1895
IF	-11.1898
フィン	-11.1899
▁Album	-11.19
rig	-11.19
逮捕	-11.1902
相手の	-11.1902
bach	-11.1902
社の	-11.1902
オペラ	-11.1904
▁offensive	-11.1906
《	-11.1906
▁prime	-11.1908
舟	-11.1908
UP	-11.1908
main	-11.1909
▁Pas	-11.191
▁Communications	-11.1913
終了後	-11.1919
(1984	-11.1919
▁showing	-11.1921
▁fee	-11.1921
1966	-11.1922
ude	-11.1923
の実	-11.1923
》	-11.1924
rh	-11.1928
(12	-11.1928
推	-11.1929
幾	-11.1934
画像	-11.1934
マク	-11.1934
▁caught	-11.1935
▁2014.	-11.1936
mph	-11.1937
以前	-11.1938
▁cinema	-11.1938
すぐに	-11.1938
漢字	-11.1938
▁opposite	-11.1944
▁Cle	-11.1945
そのもの	-11.1946
▁Chu	-11.1947
月末	-11.1949
人工	-11.1949
▁Dur	-11.1951
▁Finnish	-11.1953
▁domain	-11.1953
▁Borough	-11.1953
ツー	-11.1954
▁AC	-11.1955
▁license	-11.1956
▁fill	-11.1956
をしていた	-11.1957
rad	-11.1959
▁labor	-11.1959
▁1994,	-11.1959
すこと	-11.196
nk	-11.1961
青山	-11.1961
先に	-11.1962
▁investment	-11.1963
umi	-11.1966
▁Bass	-11.1968
流行	-11.1968
呼	-11.1972
VA	-11.1974
見られる	-11.1975
再建	-11.1976
授業	-11.1977
詳細は	-11.1977
post	-11.1978
away	-11.198
▁Set	-11.198
ago	-11.1981
ショップ	-11.1981
いき	-11.1982
本編	-11.1983
▁Tha	-11.1985
▁brain	-11.1986
サウンド	-11.1987
▁Kel	-11.1987
▁hot	-11.1989
▁really	-11.199
▁arrival	-11.1991
▁raid	-11.1992
mod	-11.1992
fiction	-11.1994
沿い	-11.1995
まい	-11.1995
誰	-11.1998
さまざまな	-11.1998
NG	-11.1999
▁Politics	-11.1999
菅	-11.1999
El	-11.1999
商店街	-11.2001
募集	-11.2003
委員長	-11.2003
るようになった	-11.2003
圭	-11.2004
▁flood	-11.2004
PP	-11.2005
世は	-11.2005
数学	-11.2006
の音楽	-11.2007
▁Mind	-11.2008
Ka	-11.2009
つな	-11.2011
▁shop	-11.2013
活動を	-11.2014
etta	-11.2015
path	-11.2015
建造	-11.2015
一般的に	-11.2018
1948	-11.2019
▁wa	-11.2019
vern	-11.202
▁Sarah	-11.202
ere	-11.2023
▁Episode	-11.2026
俗	-11.2027
劇場版	-11.2029
▁59	-11.2035
▁tunnel	-11.2035
▁coal	-11.2036
dder	-11.2036
quest	-11.2038
▁freedom	-11.2039
music	-11.204
rab	-11.2042
rac	-11.2042
ユダヤ人	-11.2043
▁intention	-11.2045
▁Sav	-11.2048
堅	-11.2048
▁Coach	-11.2051
▁armed	-11.2053
sec	-11.2054
▁Carlos	-11.2055
ました	-11.2058
夫人	-11.2058
錦	-11.2061
巻き	-11.2061
▁medicine	-11.2061
ロケット	-11.2062
分布	-11.2063
trick	-11.2064
猿	-11.2064
票	-11.2064
ないため	-11.2064
長く	-11.2067
▁Wo	-11.2067
▁Staff	-11.207
祖父	-11.2071
改修	-11.2072
も多く	-11.2072
acle	-11.2073
▁アン	-11.2073
新人	-11.2074
▁Jar	-11.2074
ファッション	-11.2074
ゲイ	-11.2076
▁安	-11.2077
▁Tigers	-11.2077
CF	-11.2079
葛	-11.2079
すぎ	-11.208
▁Small	-11.208
との関係	-11.208
arrow	-11.2081
バス停	-11.2082
▁why	-11.2082
ried	-11.2082
競	-11.2082
stall	-11.2084
▁accused	-11.2084
取った	-11.2085
▁genre	-11.2086
1952	-11.2087
▁credit	-11.2087
▁Thailand	-11.2089
受験	-11.209
自宅	-11.2091
▁NHL	-11.2091
urg	-11.2092
▁severe	-11.2095
ヤマ	-11.2095
然	-11.2096
平野	-11.2096
エレ	-11.2097
▁Alt	-11.2101
▁possess	-11.2101
▁meets	-11.2102
▁reality	-11.2103
ジュニア	-11.2105
三重県	-11.2105
pes	-11.2105
▁Alliance	-11.2106
ific	-11.2107
本体	-11.2107
ネイ	-11.2108
▁budget	-11.2109
▁Current	-11.2109
▁Swa	-11.2111
覆	-11.2111
▁Mau	-11.2113
▁Cop	-11.2114
たこと	-11.2114
1,000	-11.2115
区の	-11.2116
▁check	-11.2116
われた	-11.2116
大学出身の人物	-11.2117
▁lose	-11.2118
▁pool	-11.2118
▁Pala	-11.2121
村上	-11.2122
ブロ	-11.2123
▁CBS	-11.2126
▁Mother	-11.2126
▁1870	-11.2127
を得	-11.2127
あたり	-11.2128
などと	-11.2135
材料	-11.2136
▁evening	-11.2136
一切	-11.2137
FE	-11.2137
shan	-11.2137
アイルランド	-11.2137
▁Orange	-11.2138
回数	-11.2138
▁1000	-11.2139
UK	-11.2139
ía	-11.2139
(5	-11.214
昔	-11.214
▁credited	-11.214
▁battalion	-11.214
変換	-11.214
磁	-11.2143
▁gets	-11.2143
大分	-11.2144
▁Late	-11.2145
foot	-11.2145
ための	-11.2146
▁サン	-11.2148
却	-11.215
合流	-11.215
マイケル	-11.2151
▁universities	-11.2153
▁Sad	-11.2154
▁charges	-11.2155
ough	-11.2156
▁admitted	-11.2156
profit	-11.2157
astic	-11.2157
ivity	-11.2158
▁Rain	-11.2159
▁Legislative	-11.2159
勤	-11.2159
▁Fel	-11.216
▁Description	-11.216
▁Cul	-11.2163
抑え	-11.2163
患者	-11.2164
▁audio	-11.2164
ope	-11.2164
▁Sc	-11.2165
▁picture	-11.2165
曹	-11.2166
亮	-11.2167
▁Defunct	-11.2167
▁Branch	-11.2169
涼	-11.2172
night	-11.2172
▁shooting	-11.2173
fl	-11.2174
▁details	-11.2174
▁nor	-11.2175
▁SS	-11.2175
に関して	-11.2175
▁Medicine	-11.2175
▁Steel	-11.2176
投資	-11.2176
▁ハ	-11.2178
陳	-11.218
riot	-11.2183
▁Mall	-11.2183
範	-11.2184
西側	-11.2185
▁documents	-11.2187
hel	-11.2191
即位	-11.2193
版の	-11.2194
を得た	-11.2195
愛称	-11.2195
ビーム	-11.2197
▁Return	-11.2197
▁exercise	-11.2198
鈴	-11.2201
rel	-11.2201
下に	-11.2203
スコ	-11.2204
▁1892	-11.2208
▁Bru	-11.2209
地名	-11.2211
ネオ	-11.2212
▁duties	-11.2213
CK	-11.2213
▁assault	-11.2215
azi	-11.2215
▁replacement	-11.2215
▁uniform	-11.2215
クリア	-11.2217
高原	-11.2218
それに	-11.2224
ることができる	-11.2224
▁paintings	-11.2224
塾	-11.2225
▁stating	-11.2226
▁views	-11.2228
▁nu	-11.2229
mig	-11.223
▁eleven	-11.223
ido	-11.2231
ケット	-11.2231
ながらも	-11.2231
線を	-11.2232
観客	-11.2232
▁Iranian	-11.2232
ket	-11.2233
▁layer	-11.2234
項目	-11.2234
orn	-11.2235
ーナ	-11.2235
ハート	-11.2236
▁Greg	-11.2236
how	-11.2236
▁Theater	-11.2237
わり	-11.2237
ッカ	-11.2238
▁engines	-11.2238
溝	-11.2238
深い	-11.2238
将来	-11.224
rov	-11.224
gene	-11.2241
過去に	-11.2241
とも呼ばれる	-11.2241
手紙	-11.2242
最終的に	-11.2244
▁ideas	-11.2245
、1990	-11.2245
▁expert	-11.2246
▁calling	-11.2246
▁associate	-11.225
с	-11.2251
朱	-11.2251
▁returns	-11.2252
▁tennis	-11.2253
モンスター	-11.2253
子は	-11.2253
▁Parish	-11.2254
▁Devil	-11.2254
討	-11.2255
▁conduct	-11.2257
▁1891	-11.2257
▁circuit	-11.2257
現在も	-11.2258
▁bond	-11.226
▁storage	-11.226
uan	-11.226
▁Authority	-11.2261
kins	-11.2262
を超える	-11.2263
▁歌	-11.2267
▁1894	-11.2267
▁Steven	-11.2269
演劇	-11.2269
▁Multi	-11.227
コム	-11.227
正式に	-11.2272
前半	-11.2273
ロバート	-11.2275
lap	-11.2276
eta	-11.2276
UM	-11.2276
ボード	-11.2278
▁Online	-11.228
反乱	-11.228
▁Rub	-11.2282
基礎	-11.2283
▁mental	-11.2283
引き続き	-11.2284
▁values	-11.2285
飲	-11.2286
騎士	-11.2286
real	-11.2288
▁Richmond	-11.2289
▁Hat	-11.2289
volve	-11.229
木曜	-11.229
家に	-11.2292
▁owners	-11.2294
tial	-11.2294
NK	-11.2294
▁Name	-11.2294
嵐	-11.2294
まとめ	-11.2294
イス	-11.2295
jun	-11.2297
と思われる	-11.2297
▁restored	-11.2297
ör	-11.2298
▁Lanka	-11.2299
▁persons	-11.2299
▁Grade	-11.2299
▁variation	-11.23
▁exception	-11.2302
個体	-11.2303
wen	-11.2305
主体	-11.2306
フィル	-11.2306
流れる	-11.2306
Elect	-11.2306
はほとんど	-11.2308
1500	-11.2308
atic	-11.2308
▁1999.	-11.2308
クロー	-11.2311
ドーム	-11.2319
▁factors	-11.2319
▁2015.	-11.232
上げた	-11.232
bot	-11.2321
生涯	-11.2321
had	-11.2322
てい	-11.2323
ech	-11.2325
▁hundred	-11.2326
寮	-11.2326
両親	-11.2327
始めた	-11.2327
▁looking	-11.2328
グランド	-11.2329
哉	-11.2329
いつ	-11.233
日本代表	-11.233
作品の	-11.2332
ものと	-11.2333
停車	-11.2333
▁1885	-11.2333
▁54	-11.2335
TT	-11.2337
外部	-11.234
新規	-11.2341
すら	-11.2342
▁percussion	-11.2343
inus	-11.2343
を発売	-11.2344
▁chose	-11.2344
を設け	-11.2345
▁driving	-11.2346
(8	-11.2347
pr	-11.2347
化する	-11.2349
訴訟	-11.235
もと	-11.2351
座席	-11.2351
ania	-11.2351
▁Sor	-11.2354
裂	-11.2356
▁Cathedral	-11.2356
▁provincial	-11.2359
古い	-11.236
加工	-11.236
瀬戸	-11.2361
地域の	-11.2362
▁didn	-11.2362
恋愛	-11.2363
こともあった	-11.2363
ゲー	-11.2367
▁distributed	-11.2367
GE	-11.2367
最優秀	-11.2367
載	-11.237
▁depict	-11.2372
亭	-11.2372
レーベル	-11.2372
▁2016.	-11.2372
涙	-11.2375
鼻	-11.2375
▁Companies	-11.2375
▁defence	-11.2375
▁Kill	-11.2376
lee	-11.2377
スペ	-11.2378
1951	-11.2379
nut	-11.2379
勘	-11.238
繋	-11.2383
市役所	-11.2383
▁stopped	-11.2384
邸	-11.2385
▁Vienna	-11.2386
※	-11.2387
ロイド	-11.2388
▁Glasgow	-11.2388
350	-11.2389
中国の	-11.2389
ヴィン	-11.239
▁affected	-11.239
▁tourist	-11.2393
大幅に	-11.2394
針	-11.2394
▁tank	-11.2394
進化	-11.2395
の間で	-11.2395
の神	-11.2397
気象	-11.2398
▁Drive	-11.2399
▁disestablished	-11.24
からなる	-11.24
承認	-11.24
▁Card	-11.2401
日間	-11.2401
▁statue	-11.2402
1941	-11.2403
▁nothing	-11.2403
呼び	-11.2403
秦	-11.2404
頃に	-11.2405
切れ	-11.2408
patch	-11.2408
守備	-11.2411
▁parent	-11.2414
▁bu	-11.2414
anga	-11.2416
vir	-11.2417
が異なる	-11.2418
▁retained	-11.2418
漫画家	-11.2418
幹部	-11.2419
時間帯	-11.2419
かない	-11.242
記号	-11.2421
т	-11.2424
▁Egyptian	-11.2426
ホン	-11.2427
ものであった	-11.2427
▁highlight	-11.2428
コメント	-11.2429
▁downtown	-11.243
General	-11.2431
AND	-11.2431
公立	-11.2432
▁intelligence	-11.2432
▁rose	-11.2434
▁Keith	-11.2435
▁Economic	-11.2435
▁Maha	-11.2435
▁Gr	-11.2436
▁Pet	-11.2437
▁producers	-11.2438
▁Jun	-11.2439
▁skin	-11.244
頭部	-11.244
dio	-11.2442
と考えられる	-11.2443
後述	-11.2444
▁references	-11.2445
繁	-11.2445
▁curve	-11.2445
驚	-11.2445
boat	-11.2445
▁NBC	-11.2447
▁Ivan	-11.2447
弦	-11.2448
沖縄県	-11.2449
続ける	-11.245
CG	-11.245
▁thick	-11.245
‐	-11.2451
分岐	-11.2453
晋	-11.2453
▁junction	-11.2454
▁今	-11.2457
養子	-11.246
▁affiliate	-11.246
▁criticism	-11.2461
はず	-11.2464
ware	-11.2464
ović	-11.2464
▁Secondary	-11.2464
含	-11.2465
▁Serbia	-11.2467
▁1893	-11.2469
▁drawn	-11.2469
(2023	-11.2471
議論	-11.2472
運輸	-11.2476
▁epi	-11.2478
▁Wars	-11.2478
width	-11.2478
寺院	-11.2479
issue	-11.248
FI	-11.2482
1942	-11.2482
塗装	-11.2483
大規模な	-11.2484
さくら	-11.2485
▁colonial	-11.2485
印刷	-11.2485
tto	-11.2486
を作る	-11.2486
▁Charlie	-11.2487
ドリーム	-11.2488
▁restaurant	-11.2488
▁赤	-11.2489
ゴールデン	-11.2489
ヒト	-11.249
韓	-11.2492
いたが	-11.2492
潤	-11.2494
ッタ	-11.2496
▁Drama	-11.2497
束	-11.2503
に収録	-11.2504
▁IN	-11.2505
にわたって	-11.2505
▁(2009)	-11.2505
▁Alaska	-11.2506
季	-11.2506
併	-11.2509
帰国	-11.2509
▁damaged	-11.2509
lav	-11.2511
▁Charlotte	-11.2511
葬	-11.2513
数字	-11.2513
所在地	-11.2514
合う	-11.2514
nate	-11.2515
篠	-11.2515
▁prisoners	-11.2517
fort	-11.2518
▁carbon	-11.2519
▁Mak	-11.2519
業界	-11.2519
要請	-11.2519
閣	-11.2521
rry	-11.2521
毎日放送	-11.2522
▁CEO	-11.2523
horn	-11.2523
年代に	-11.2524
ヌー	-11.2524
▁publications	-11.2525
)→	-11.2526
rest	-11.2526
コア	-11.2527
狼	-11.2527
Jo	-11.2529
テレビ番組	-11.2529
▁Literature	-11.2533
四郎	-11.2533
â	-11.2535
(1982	-11.2536
▁Mine	-11.2537
巨大	-11.2538
cious	-11.2538
▁Zone	-11.254
戦う	-11.254
▁Bristol	-11.2541
リアン	-11.2542
▁passage	-11.2543
ending	-11.2544
籍	-11.2544
危険	-11.2545
▁Peru	-11.2546
▁Let	-11.2546
▁committed	-11.2547
▁スーパー	-11.2548
life	-11.255
ime	-11.255
▁Alberta	-11.2551
頂	-11.2554
殺人事件	-11.2555
uncredited	-11.2557
ナンバー	-11.2558
優先	-11.2558
▁Map	-11.2561
ちょう	-11.2562
▁Greater	-11.2562
父の	-11.2562
DR	-11.2562
▁(2)	-11.2563
地方の	-11.2564
らん	-11.2565
▁Eight	-11.2566
感染	-11.2566
▁seventh	-11.2567
▁stretch	-11.2569
の三	-11.257
のもと	-11.2571
勝負	-11.2571
rol	-11.2572
nell	-11.2573
pass	-11.2573
えて	-11.2573
▁Symphony	-11.2574
セブン	-11.2575
imi	-11.2575
軒	-11.2577
osis	-11.2577
▁Bir	-11.2578
pose	-11.2579
午後	-11.2579
一般的な	-11.2579
rack	-11.2581
rio	-11.2581
ぴ	-11.2582
hum	-11.2582
▁attached	-11.2582
が増え	-11.2583
居住	-11.2583
▁Legend	-11.2583
▁監督	-11.2584
▁element	-11.2585
悪い	-11.2585
▁coll	-11.2585
▁Ap	-11.2586
▁Cincinnati	-11.2588
されたもの	-11.259
alo	-11.2591
▁Arkansas	-11.2593
▁Diocese	-11.2593
モハ	-11.2595
かかる	-11.2597
福岡県	-11.2599
▁evolution	-11.2599
出現	-11.2599
フェン	-11.2599
を展開	-11.26
▁cousin	-11.2602
cial	-11.2604
▁Serbian	-11.2604
▁landscape	-11.2605
▁assist	-11.2606
体重	-11.2608
ゴールド	-11.2608
戦では	-11.2609
知られ	-11.2609
▁Cole	-11.2611
▁Crow	-11.2612
▁Demographics	-11.2612
装着	-11.2612
PE	-11.2612
▁Wrestling	-11.2613
班	-11.2615
▁amateur	-11.2615
ティス	-11.2616
▁switch	-11.2616
▁Sto	-11.2618
シリーズの	-11.262
併設	-11.262
(1980	-11.262
若い	-11.2623
人類	-11.2624
開局	-11.2625
itive	-11.2625
ヴェル	-11.2625
▁$2	-11.2625
見える	-11.2628
▁Ker	-11.2629
▁essay	-11.2629
BB	-11.263
暮らし	-11.263
▁pattern	-11.263
▁coaching	-11.2631
時台	-11.2632
▁secretary	-11.2632
天皇の	-11.2632
上田	-11.2633
▁coverage	-11.2634
▁mall	-11.2634
cis	-11.2635
flower	-11.2637
▁Deputy	-11.2638
OK	-11.2638
▁Medalists	-11.2639
京都市	-11.264
▁CR	-11.2641
May	-11.2643
▁Bou	-11.2643
NE	-11.2643
tten	-11.2645
▁humans	-11.2645
▁constituency	-11.2646
幼	-11.2646
全長	-11.2646
詩人	-11.2646
gam	-11.2647
On	-11.2647
▁plus	-11.2649
▁mechanism	-11.2649
▁hip	-11.2649
▁sort	-11.2649
襲撃	-11.265
posed	-11.265
▁Originally	-11.2651
ホールディングス	-11.2652
事が	-11.2653
ファミリー	-11.2657
▁listen	-11.2659
地点	-11.2659
道具	-11.266
▁Buddhist	-11.266
▁manufacturing	-11.266
ユニ	-11.266
tech	-11.2663
cover	-11.2665
tric	-11.2665
坂本	-11.2665
信頼	-11.2666
の楽曲	-11.2667
編入	-11.2668
corn	-11.2669
▁keyboards	-11.2669
▁Municipality	-11.2669
▁Limited	-11.267
▁fired	-11.2672
審査	-11.2673
いていた	-11.2673
原則	-11.2673
操縦	-11.2674
詞	-11.2674
ike	-11.2675
棒	-11.2675
離れ	-11.2676
▁medieval	-11.2676
銭	-11.2677
▁Tree	-11.2677
けい	-11.2677
▁Portland	-11.2677
▁interests	-11.2678
吸収	-11.2679
▁praised	-11.2682
不可能	-11.2684
車庫	-11.2684
PM	-11.2684
英国	-11.2685
徐々に	-11.2685
▁grass	-11.2685
▁1993,	-11.2687
cas	-11.2689
▁publishing	-11.2689
▁(1999)	-11.269
issa	-11.269
ī	-11.269
、2017	-11.2694
▁convention	-11.2694
碑	-11.2696
釜	-11.2696
card	-11.2696
徒	-11.2697
(1979	-11.2697
敗北	-11.2697
sted	-11.2697
▁instruments	-11.2698
uda	-11.2698
辛	-11.2701
ドラム	-11.2702
提出	-11.2702
▁Ny	-11.2702
合わせて	-11.2703
軍団	-11.2705
▁tale	-11.2705
▁Past	-11.2707
爆弾	-11.2708
▁PlayStation	-11.271
▁eyes	-11.271
▁SP	-11.2711
1943	-11.2712
パソコン	-11.2712
▁Say	-11.2713
▁Guitar	-11.2713
−	-11.2716
は不明	-11.2716
▁石	-11.2716
」・「	-11.2717
するも	-11.2717
注目	-11.2718
ミング	-11.2718
ë	-11.2718
実際には	-11.2718
▁raise	-11.2719
しょ	-11.2719
類似	-11.2719
▁Weekly	-11.272
▁degrees	-11.272
▁adventure	-11.2721
詳細	-11.2722
▁shoot	-11.2722
松山	-11.2722
化し	-11.2723
実は	-11.2724
青森県	-11.2724
な性格	-11.2725
▁ownership	-11.2725
phone	-11.2726
宇都宮	-11.2727
認め	-11.2727
action	-11.2728
墓	-11.273
▁Saints	-11.2731
▁procedure	-11.2732
▁contributions	-11.2733
大手	-11.2733
争い	-11.2734
次第に	-11.2734
監修	-11.2735
カム	-11.2737
sym	-11.2738
もない	-11.2738
ulf	-11.274
立場	-11.274
▁Collins	-11.2741
▁exhibit	-11.2741
som	-11.2743
▁definition	-11.2743
▁benefit	-11.2743
own	-11.2745
▁representation	-11.2745
次元	-11.2746
脱出	-11.2746
▁Nat	-11.2747
▁Sultan	-11.2748
使う	-11.2748
▁66	-11.275
に設置	-11.275
ダイヤ	-11.275
酸化	-11.2751
栃木県	-11.2751
▁fly	-11.2752
古墳	-11.2752
▁1992,	-11.2753
劇中	-11.2753
概念	-11.2754
▁ranking	-11.2755
▁serial	-11.2755
りん	-11.2756
HI	-11.2756
▁Isle	-11.2757
主力	-11.2758
コス	-11.2758
▁Stars	-11.2758
▁rejected	-11.276
▁spec	-11.2761
Or	-11.2762
▁abuse	-11.2762
▁Ring	-11.2763
一丁目	-11.2763
▁suggests	-11.2764
対決	-11.2765
▁spiritual	-11.2766
▁coastal	-11.2769
▁Palm	-11.277
開発された	-11.277
lib	-11.2772
現役	-11.2772
名で	-11.2773
発達	-11.2773
度目の	-11.2774
▁Around	-11.2774
▁mining	-11.2777
▁sentence	-11.2779
▁fu	-11.278
BR	-11.278
スピ	-11.278
ista	-11.2781
▁cent	-11.2781
、2019	-11.2783
GT	-11.2785
▁Mala	-11.2786
CE	-11.2786
▁assumed	-11.2789
▁hat	-11.2789
▁Footballers	-11.2789
ガール	-11.279
▁Census	-11.2791
▁Minor	-11.2793
権力	-11.2794
ode	-11.2795
▁1888	-11.2795
▁(12	-11.2798
▁Fleet	-11.2798
▁Cinema	-11.2799
▁guide	-11.2799
▁truck	-11.28
買い	-11.28
hin	-11.2801
Ne	-11.2803
organ	-11.2804
kers	-11.2805
▁Tin	-11.2806
上げる	-11.2806
▁1998.	-11.2807
▁Aviation	-11.2808
▁extremely	-11.2808
▁communication	-11.2809
に入った	-11.2809
確保	-11.2811
▁linked	-11.2812
二郎	-11.2813
▁Neu	-11.2813
ヒュー	-11.2814
▁require	-11.2815
(1981	-11.2816
vie	-11.2816
▁Days	-11.2816
▁biggest	-11.2817
キュー	-11.2817
▁load	-11.2817
らせ	-11.2818
▁初	-11.2819
phil	-11.282
が設置され	-11.2821
議長	-11.2822
繰り	-11.2824
▁fur	-11.2824
交代	-11.2824
▁wings	-11.2825
▁bone	-11.2826
ヘン	-11.2826
の意味	-11.2826
▁institute	-11.2827
▁satellite	-11.2828
blo	-11.2828
▁touch	-11.2828
請	-11.283
mol	-11.283
レーション	-11.2831
▁Additionally	-11.2832
訓	-11.2836
フロ	-11.2837
訪問	-11.2839
mid	-11.284
note	-11.2841
良く	-11.2841
本作の	-11.2842
pil	-11.2842
考	-11.2842
原子	-11.2845
発表した	-11.2845
bank	-11.2846
IX	-11.2846
flo	-11.2847
ッグ	-11.2847
干	-11.285
撤去	-11.285
▁Larry	-11.2851
▁Marc	-11.2851
競馬場	-11.2852
▁complain	-11.2854
▁Marvel	-11.2854
▁assistance	-11.2857
kha	-11.2857
が大きく	-11.2858
保有	-11.286
▁Cher	-11.2861
答え	-11.2861
かつての	-11.2862
▁membership	-11.2862
判定	-11.2863
En	-11.2865
バート	-11.2865
小倉	-11.2865
bir	-11.2865
敗退	-11.2866
bird	-11.2866
附属	-11.2866
澄	-11.2867
山陽	-11.2871
▁wounded	-11.2872
▁manga	-11.2872
rm	-11.2873
▁Defence	-11.2874
▁Future	-11.2874
rug	-11.2876
突き	-11.2877
▁elevation	-11.2879
の乱	-11.2879
▁Spe	-11.288
機会	-11.2881
むら	-11.2884
▁transportation	-11.2884
▁Muhammad	-11.2884
極めて	-11.2885
cop	-11.2885
姿勢	-11.2885
亡	-11.2886
mac	-11.2887
▁arrest	-11.2889
▁dispute	-11.2889
▁magazines	-11.2889
1963	-11.289
▁interchange	-11.289
▁Cold	-11.2892
、2018	-11.2892
▁factor	-11.2892
▁carrying	-11.2896
▁arranged	-11.2896
▁Warner	-11.2898
▁teachers	-11.2898
アカ	-11.2899
▁(1998)	-11.29
▁charged	-11.2903
ld	-11.2903
▁Twin	-11.2904
▁journey	-11.2904
TU	-11.2906
▁significantly	-11.2908
▁Movement	-11.2908
▁鈴木	-11.2909
▁Carol	-11.2909
▁tape	-11.291
のことを	-11.291
▁export	-11.291
▁difference	-11.291
ゆき	-11.2911
次男	-11.2912
▁Chan	-11.2912
蘇	-11.2912
▁名古屋	-11.2913
相手に	-11.2913
▁Publications	-11.2915
寄り	-11.2917
秘密	-11.2917
ancy	-11.2918
mouth	-11.2918
命名	-11.2918
終盤	-11.2919
▁merchant	-11.2921
づけ	-11.2922
午前	-11.2922
などから	-11.2922
iana	-11.2922
有力	-11.2922
▁colleges	-11.2924
▁Bureau	-11.2924
兵士	-11.2925
くら	-11.2925
ün	-11.2926
▁shift	-11.2927
負担	-11.2927
▁jurisdiction	-11.2927
揚	-11.2928
を発	-11.2929
▁romantic	-11.293
▁1997.	-11.293
▁presidential	-11.293
▁disorder	-11.2931
▁capable	-11.2931
▁Tai	-11.2932
wel	-11.2933
▁costs	-11.2934
申請	-11.2936
彼女の	-11.2936
yne	-11.2937
長野県	-11.2938
▁classified	-11.2938
終わり	-11.2939
▁gift	-11.2939
▁Springs	-11.294
を見て	-11.294
が登場する	-11.2941
バッ	-11.2941
簡易	-11.2941
rina	-11.2941
市川	-11.2942
▁Micro	-11.2943
▁peaked	-11.2947
▁borders	-11.2947
Da	-11.2947
iga	-11.2948
vention	-11.2948
mand	-11.2949
▁Lil	-11.295
▁user	-11.2951
▁Jonathan	-11.2956
にまで	-11.2956
の高い	-11.2956
▁ser	-11.2957
▁LP	-11.296
攻	-11.2961
white	-11.2961
トゥー	-11.2962
▁stayed	-11.2962
てん	-11.2965
▁march	-11.2966
川村	-11.2966
合同	-11.2968
▁Indians	-11.2969
person	-11.2971
進む	-11.2974
殺し	-11.2974
ぽ	-11.2974
▁newspapers	-11.2975
▁Taiwan	-11.2976
▁Dakota	-11.2976
屋根	-11.2978
▁popularity	-11.2978
▁cards	-11.2978
▁Bangladesh	-11.2979
わる	-11.2979
大将	-11.2981
専門学校	-11.2981
▁snow	-11.2982
欲	-11.2982
▁shut	-11.2982
免	-11.2983
クラシック	-11.2984
lash	-11.2984
rous	-11.2985
ょ	-11.2987
共著	-11.2988
ペット	-11.2988
oro	-11.2989
▁Tru	-11.2989
屋敷	-11.299
叙	-11.299
▁identify	-11.2991
るなど	-11.2991
▁DNA	-11.2994
判決	-11.2994
IE	-11.2997
払	-11.2999
▁Bart	-11.3
スー	-11.3002
外交	-11.3002
iber	-11.3003
▁Liga	-11.3004
▁Benjamin	-11.3004
▁belonged	-11.3005
▁Kirk	-11.3005
▁bad	-11.3006
滋賀県	-11.3006
▁1860	-11.3006
閉店	-11.3009
ár	-11.3009
▁Present	-11.3011
奪	-11.3012
司令官	-11.3013
ゲート	-11.3015
いう	-11.3015
etti	-11.3016
hing	-11.3016
語の	-11.3016
流通	-11.3016
ョ	-11.3017
コマ	-11.3018
▁struggle	-11.3021
rav	-11.3021
収入	-11.3022
違反	-11.3022
▁Pictures	-11.3025
時計	-11.3025
号機	-11.3026
▁depend	-11.3026
▁Gas	-11.3029
マルチ	-11.303
さない	-11.303
予想	-11.303
▁Crime	-11.3031
▁mouth	-11.3031
GS	-11.3033
bil	-11.3033
▁discuss	-11.3033
▁signing	-11.3033
▁candidates	-11.3034
▁stood	-11.3034
両者	-11.3035
▁Mitchell	-11.3036
が決定	-11.3037
quin	-11.3039
せた	-11.304
▁organisation	-11.3041
晃	-11.3042
博多	-11.3043
▁Near	-11.3045
▁Giants	-11.3046
、2020	-11.3046
▁cable	-11.3048
に対応	-11.305
であれば	-11.3051
mill	-11.3051
MBS	-11.3051
bun	-11.3051
を与える	-11.3053
ロイ	-11.3053
▁appearing	-11.3054
▁過去の	-11.3055
maker	-11.3055
lung	-11.3057
▁Leonard	-11.3058
▁delivered	-11.3058
▁covering	-11.3059
▁Michel	-11.3059
logical	-11.3059
▁Leon	-11.306
▁tie	-11.306
▁bound	-11.3062
asa	-11.3062
アレ	-11.3062
温度	-11.3063
申	-11.3064
も存在する	-11.3064
▁accompanied	-11.3065
rib	-11.3065
家臣	-11.3067
▁Lind	-11.3068
▁substitute	-11.3068
▁56	-11.3068
伊豆	-11.3069
3.5	-11.307
▁favour	-11.3071
▁genetic	-11.3073
▁appointment	-11.3073
▁weekly	-11.3073
▁Met	-11.3074
ichi	-11.3075
ッパ	-11.3079
▁Merc	-11.308
vant	-11.3088
polis	-11.3089
▁otherwise	-11.3092
起源	-11.3092
itor	-11.3095
、1999	-11.3095
〜』	-11.3096
?)	-11.3096
cz	-11.3098
金曜日	-11.3099
én	-11.31
▁1886	-11.31
▁reporter	-11.3101
トヨタ	-11.3101
▁substantial	-11.3103
▁fishing	-11.3103
▁bed	-11.3104
ソル	-11.3106
clo	-11.3108
▁Technical	-11.3108
▁qualified	-11.3108
保安	-11.3109
解消	-11.311
▁advocate	-11.3111
▁users	-11.3112
lets	-11.3115
パック	-11.3115
▁bid	-11.3117
することは	-11.3118
▁Guinea	-11.3118
▁jobs	-11.3118
悟	-11.3119
を変更	-11.3119
盛り	-11.312
▁journal	-11.3121
▁MD	-11.3121
ついた	-11.3122
桁	-11.3123
都道府県	-11.3123
方が	-11.3123
oi	-11.3125
を見せ	-11.3125
cord	-11.3128
ここ	-11.313
▁Cuba	-11.313
ulated	-11.3131
という意味	-11.3131
▁rescue	-11.3131
▁hosts	-11.3132
▁主演	-11.3132
▁Actor	-11.3132
▁Machine	-11.3133
ドール	-11.3134
を開設	-11.3134
偏	-11.3134
▁Caribbean	-11.3135
▁1991,	-11.3137
▁Terry	-11.3137
▁examples	-11.3137
▁exit	-11.3138
▁Pierre	-11.3138
柔道	-11.3139
▁Sher	-11.3139
随	-11.3139
与え	-11.3141
▁Falls	-11.3141
用に	-11.3141
cott	-11.3142
ランプ	-11.3142
▁Snow	-11.3142
▁registered	-11.3143
John	-11.3143
▁circle	-11.3144
▁Manhattan	-11.3146
した際	-11.3149
▁横浜	-11.315
cit	-11.3151
搭乗	-11.3151
▁(2010)	-11.3151
に移行	-11.3152
wy	-11.3153
入社	-11.3153
フランク	-11.3153
winning	-11.3154
▁runner	-11.3156
MF	-11.3156
Br	-11.3157
▁treat	-11.3158
▁classification	-11.316
ギリシャ	-11.3161
▁infrastructure	-11.3161
リウス	-11.3161
▁instruction	-11.3164
キック	-11.3164
then	-11.3166
quit	-11.3167
▁Take	-11.3169
▁instrument	-11.317
ブラン	-11.3171
方言	-11.3172
ONE	-11.3173
われる	-11.3174
恭	-11.3175
▁Warren	-11.3176
モンゴル	-11.3176
の小	-11.3181
評論家	-11.3181
ミュ	-11.3184
取締役	-11.3186
▁Stein	-11.3188
vari	-11.3189
利益	-11.319
終了した	-11.3191
▁kingdom	-11.3191
ISO	-11.3192
出来る	-11.3192
男女	-11.3192
owl	-11.3193
▁Vincent	-11.3194
跡地	-11.3194
▁Costa	-11.3197
恋人	-11.3199
ional	-11.32
ref	-11.3202
▁literacy	-11.3202
▁learned	-11.3203
なければならない	-11.3203
dh	-11.3204
▁Pie	-11.3204
▁executed	-11.3204
▁Blu	-11.3205
資源	-11.3205
に取り	-11.3206
を求める	-11.3207
▁Bosnia	-11.3208
ストン	-11.3208
英雄	-11.3209
ハム	-11.3209
▁responsibility	-11.3214
直後に	-11.3214
一致	-11.3214
▁Ancient	-11.3215
▁岩	-11.3215
▁headed	-11.3216
▁experienced	-11.3216
▁lu	-11.3216
▁53	-11.3216
▁error	-11.3217
▁terminal	-11.3217
hon	-11.322
タワー	-11.3221
rite	-11.3221
▁Virgin	-11.3221
リカ	-11.3222
▁tied	-11.3222
▁Had	-11.3224
ちなみに	-11.3225
▁DE	-11.3226
有名な	-11.3226
ができる	-11.3227
1939	-11.3227
序	-11.3228
スイス	-11.3228
▁1887	-11.3228
cess	-11.3228
▁bird	-11.3229
▁Fur	-11.323
ポルトガル	-11.3231
llo	-11.3232
ema	-11.3232
差し	-11.3232
実際の	-11.3232
ulate	-11.3232
ぜ	-11.3232
違う	-11.3234
▁sur	-11.3234
TD	-11.3234
モル	-11.3237
test	-11.3237
▁naval	-11.3238
歩兵	-11.3239
(1978	-11.3239
▁Nation	-11.3239
▁(1997)	-11.3241
▁requirements	-11.3242
▁Knights	-11.3245
社会主義	-11.3249
▁selling	-11.325
使われている	-11.3251
▁Storm	-11.3252
の死	-11.3253
▁Labor	-11.3254
に位置し	-11.3254
▁entering	-11.3256
ood	-11.3258
できず	-11.3258
1928	-11.3263
映	-11.3264
最低	-11.3264
TB	-11.3266
▁suicide	-11.3267
▁fair	-11.3269
の特徴	-11.3269
を得て	-11.327
▁cited	-11.3273
続いた	-11.3273
ペイ	-11.3274
パートナー	-11.3274
ologi	-11.3274
▁protected	-11.3274
▁prepared	-11.3275
▁Hope	-11.3275
植民地	-11.3275
▁acoustic	-11.3275
ラグビー	-11.3276
▁channels	-11.3276
▁Freedom	-11.3276
bie	-11.3278
▁Performance	-11.3278
ぷ	-11.3281
▁ill	-11.3283
怪	-11.3286
生成	-11.3286
▁Winners	-11.3287
ein	-11.3288
もっとも	-11.3291
だから	-11.3292
マイル	-11.3292
wee	-11.3292
ibility	-11.3292
▁horror	-11.3293
1962	-11.3294
恐れ	-11.3296
MU	-11.3297
▁legislation	-11.3299
▁Rule	-11.33
した際に	-11.3301
▁sail	-11.3301
文献	-11.3301
ダウン	-11.3304
公表	-11.3304
1929	-11.3304
▁ruler	-11.3305
mine	-11.3306
保守	-11.3306
▁manner	-11.3307
摩	-11.3307
pal	-11.3307
右衛門	-11.3308
▁Kha	-11.3309
▁dating	-11.3309
の花	-11.331
▁Train	-11.3311
▁technique	-11.3311
れない	-11.3313
がん	-11.3313
▁Est	-11.3314
時代は	-11.3314
mble	-11.3315
測定	-11.3315
▁Arabic	-11.3316
coming	-11.3317
王朝	-11.3318
▁cold	-11.3319
▁Wu	-11.3319
▁Manager	-11.332
全米	-11.332
年代の	-11.3321
UC	-11.3321
▁convert	-11.3322
▁households	-11.3322
ural	-11.3323
▁Every	-11.3324
spor	-11.3324
eno	-11.3325
ボックス	-11.3326
▁entertainment	-11.3327
▁Kor	-11.3328
時点	-11.3328
連れ	-11.3329
▁filed	-11.3329
部は	-11.3331
▁Canal	-11.3332
君主	-11.3332
▁broadcasting	-11.3333
erson	-11.3334
nz	-11.3334
▁ticket	-11.3335
遺伝子	-11.3335
入力	-11.3338
くり	-11.3341
▁argument	-11.3344
修正	-11.3344
しさ	-11.3345
▁discussion	-11.3346
vig	-11.3346
▁Charts	-11.3347
鹿児島県	-11.3347
禅	-11.3349
anti	-11.335
▁Character	-11.335
しよう	-11.335
▁trace	-11.335
▁ahead	-11.3352
▁banks	-11.3352
▁fresh	-11.3352
線と	-11.3353
rep	-11.3355
▁Kid	-11.3355
必ず	-11.3356
続き	-11.3356
夜間	-11.3358
進学	-11.336
ノル	-11.336
▁poem	-11.3362
dock	-11.3364
存	-11.3364
混乱	-11.3365
代理	-11.3365
得意	-11.3366
LL	-11.3367
腰	-11.3367
▁Ky	-11.3368
Art	-11.3369
▁Action	-11.3369
▁decline	-11.337
▁concentration	-11.337
に出場	-11.3371
拒否	-11.3371
なもの	-11.3372
更	-11.3372
nit	-11.3373
▁represents	-11.3374
▁dream	-11.3376
▁swimming	-11.3376
▁Ted	-11.3378
前期	-11.338
を果たす	-11.3382
に応じて	-11.3382
▁Luis	-11.3384
シェル	-11.3385
同様の	-11.3385
高度	-11.3387
▁chamber	-11.3388
▁differ	-11.3391
▁depth	-11.3391
▁huge	-11.3392
▁cup	-11.3392
▁1996.	-11.3392
年度の	-11.3394
▁Mediterranean	-11.3394
▁Ground	-11.3395
十二	-11.3397
▁schedule	-11.3397
研究会	-11.3399
kka	-11.34
イチ	-11.34
dro	-11.3401
▁Joan	-11.3401
長男	-11.3401
pun	-11.3403
dri	-11.3403
ミュージカル	-11.3403
ごく	-11.3403
▁constant	-11.3404
▁Temp	-11.3405
tailed	-11.3406
▁Nature	-11.3407
glo	-11.3407
▁verse	-11.3407
▁Nevada	-11.3409
▁portrayed	-11.341
メタル	-11.3411
▁Flight	-11.3412
rose	-11.3413
ゼル	-11.3413
▁finance	-11.3413
▁retain	-11.3414
廃車	-11.3414
飾	-11.3417
国際空港	-11.3419
▁minute	-11.342
野田	-11.342
ッパー	-11.3421
▁sculpture	-11.3421
▁falls	-11.3422
anta	-11.3422
▁mark	-11.3423
くなる	-11.3424
延伸	-11.3425
▁Bird	-11.3425
▁Uni	-11.3425
移住	-11.3425
▁possession	-11.3427
▁Craig	-11.3427
なので	-11.3428
を記録	-11.3428
陸上	-11.3428
▁Tournament	-11.343
このとき	-11.3434
間で	-11.3435
▁painted	-11.3436
▁replacing	-11.3436
▁Maine	-11.3436
1927	-11.3437
▁unusual	-11.3438
整理	-11.3442
▁injuries	-11.3442
沿岸	-11.3445
▁Vir	-11.3445
▁1884	-11.3445
▁designs	-11.3446
zing	-11.3446
部品	-11.3447
▁achievement	-11.3447
譜	-11.3448
衛生	-11.3448
Ed	-11.3449
開幕	-11.345
させること	-11.345
▁Letter	-11.3451
違	-11.3455
▁sn	-11.3455
Har	-11.3458
広域	-11.3459
と語っている	-11.346
▁rat	-11.3461
Su	-11.3462
石井	-11.3462
▁É	-11.3465
▁Well	-11.3465
レッ	-11.3465
小さい	-11.3465
▁territories	-11.3466
を行っていた	-11.3467
▁Draft	-11.3467
基本的に	-11.3469
yama	-11.3469
の運行	-11.3471
っち	-11.3472
送信	-11.3472
瑞	-11.3472
▁佐藤	-11.3475
新書	-11.3476
に当たる	-11.3477
崇	-11.3478
証明	-11.3479
bia	-11.348
▁Chairman	-11.3481
▁Leeds	-11.3483
▁scientists	-11.3484
RU	-11.3485
フト	-11.3485
ground	-11.3487
hab	-11.3488
友人	-11.3489
争	-11.3489
▁aspects	-11.349
に変更された	-11.349
自民党	-11.349
▁fit	-11.3491
▁ni	-11.3494
▁attorney	-11.3496
4,000	-11.3497
equi	-11.3497
aud	-11.3498
黄金	-11.3501
程度の	-11.3501
実業家	-11.3501
▁Wonder	-11.3503
▁missions	-11.3504
▁Lions	-11.3505
ume	-11.3505
およそ	-11.3505
▁maintenance	-11.3506
▁57	-11.3508
ステークス	-11.3508
▁bell	-11.3508
OH	-11.3511
▁illegal	-11.3512
▁criticized	-11.3513
▁Gang	-11.3513
lent	-11.3514
ドライブ	-11.3514
▁legend	-11.3514
売却	-11.3515
-14	-11.3516
very	-11.3516
選手権大会	-11.3517
▁(8	-11.3517
小川	-11.3517
▁Fictional	-11.3518
火災	-11.3518
▁collections	-11.3518
やす	-11.3519
輸出	-11.352
▁medals	-11.352
▁Fighter	-11.3522
▁Div	-11.3522
水道	-11.3523
1961	-11.3524
三浦	-11.3526
▁Commissioner	-11.3526
vat	-11.3526
▁Henri	-11.3526
▁perhaps	-11.3527
▁Afghanistan	-11.353
と同様	-11.353
▁Harrison	-11.3531
▁Madrid	-11.3534
文明	-11.3535
シナリオ	-11.3536
▁Barbara	-11.3536
バリ	-11.3538
▁specimen	-11.3539
130	-11.3539
▁Mul	-11.3542
▁demolished	-11.3542
相撲	-11.3542
栄養	-11.3543
上場	-11.3544
▁Phoenix	-11.3545
リティ	-11.3546
▁sample	-11.3546
芦	-11.3548
▁Dennis	-11.3549
京阪	-11.3549
▁Protestant	-11.3551
大戦	-11.3552
中川	-11.3552
▁coat	-11.3553
直前	-11.3554
▁penalty	-11.3557
ライバル	-11.3557
▁connect	-11.3557
されなかった	-11.3558
oke	-11.3558
▁Fla	-11.3558
▁その他の	-11.3559
隣接	-11.3559
▁(2011)	-11.356
▁Ridge	-11.356
▁anchor	-11.356
▁Shan	-11.3561
▁filmed	-11.3562
▁proper	-11.3562
▁Victorian	-11.3563
▁apply	-11.3565
MD	-11.3569
▁2017.	-11.357
の末	-11.3571
▁celebrated	-11.3571
きっかけ	-11.3571
苗	-11.3572
負傷	-11.3572
▁Bengal	-11.3574
定員	-11.3575
▁Jerusalem	-11.3575
ゃ	-11.3578
を感じ	-11.3578
を除き	-11.3578
大人	-11.3579
成分	-11.3579
梁	-11.3579
差別	-11.358
▁measure	-11.3581
cade	-11.3584
▁supposed	-11.3584
▁sit	-11.3586
うる	-11.3588
▁rivers	-11.3588
謙	-11.359
▁Highland	-11.3591
部下	-11.3593
日曜日	-11.3596
▁Grey	-11.3597
▁Brand	-11.3598
lect	-11.3598
▁agencies	-11.36
教員	-11.36
▁conductor	-11.36
隔	-11.36
▁devices	-11.3601
▁Fisher	-11.3601
トイレ	-11.3602
宝塚	-11.3602
めて	-11.3602
▁moral	-11.3602
IG	-11.3603
水戸	-11.3603
ographic	-11.3604
抜き	-11.3605
ナス	-11.3605
自体	-11.3607
あき	-11.3607
紋	-11.3608
添	-11.3609
ジム	-11.3611
存在する	-11.3613
9:00	-11.3613
▁Mit	-11.3616
と呼ばれた	-11.3616
world	-11.3616
唄	-11.3618
▁remix	-11.3618
lau	-11.3618
▁merger	-11.362
でない	-11.362
寄せ	-11.362
▁五	-11.3621
▁Contemporary	-11.3621
▁mountains	-11.3622
バウ	-11.3622
ベルリン	-11.3622
▁Data	-11.3625
▁Kee	-11.3625
約束	-11.3626
ove	-11.363
に相当する	-11.363
買収	-11.363
決め	-11.363
▁2023,	-11.3631
▁pet	-11.3631
▁legs	-11.3631
▁Thr	-11.3631
試み	-11.3633
▁Meanwhile	-11.3633
▁businessman	-11.3634
▁testing	-11.3634
▁Py	-11.3635
標高	-11.3636
▁differences	-11.3637
リップ	-11.3637
▁Thing	-11.3637
▁prince	-11.3637
▁achieve	-11.3637
設立された	-11.3639
OM	-11.364
共産党	-11.364
jar	-11.3641
▁temporary	-11.3642
▁Critical	-11.3643
▁streets	-11.3645
ローズ	-11.3646
▁Systems	-11.3646
▁practices	-11.3647
施	-11.3647
ポジション	-11.3648
述	-11.365
agon	-11.3651
天正	-11.3651
dem	-11.3653
愛知	-11.3653
石油	-11.3655
レンズ	-11.3656
本町	-11.3656
ault	-11.3657
▁Barb	-11.3657
▁understanding	-11.3657
参謀	-11.3658
space	-11.3658
ッサ	-11.3658
、1998	-11.3659
▁Jen	-11.366
osaur	-11.3661
ったり	-11.3662
▁fr	-11.3663
songwriter	-11.3664
▁Sai	-11.3666
バラエティ	-11.3667
▁discover	-11.3668
▁Original	-11.3669
依	-11.3669
ミステリー	-11.3669
▁Adelaide	-11.367
▁Admiral	-11.3672
アシスタント	-11.3673
▁Nebraska	-11.3673
▁branches	-11.3673
▁Grove	-11.3674
ios	-11.3676
▁anime	-11.3676
▁interaction	-11.3679
rew	-11.368
作者	-11.3681
側は	-11.3683
▁Alice	-11.3683
▁Roo	-11.3684
挑戦	-11.3685
を目指す	-11.3685
▁1882	-11.3685
▁choose	-11.3685
人である	-11.3686
川町	-11.3687
rash	-11.3687
テープ	-11.3687
潜水艦	-11.3687
プール	-11.3687
高野	-11.3688
een	-11.3689
開催された	-11.3689
▁drummer	-11.3689
をもつ	-11.369
▁Mess	-11.3691
ボタン	-11.3693
101	-11.3694
託	-11.3696
▁View	-11.3696
己	-11.3697
▁stages	-11.3697
近藤	-11.3698
▁大阪府	-11.3698
▁constitute	-11.3698
代替	-11.3701
▁tropical	-11.3701
▁deposit	-11.3701
を作り	-11.3702
一体	-11.3704
ときは	-11.3704
▁Gabriel	-11.3704
▁Colombia	-11.3704
▁marry	-11.3705
時から	-11.3708
代わりに	-11.3709
TI	-11.3709
打撃	-11.371
lid	-11.3712
▁Serie	-11.3713
evi	-11.3713
▁trust	-11.3714
▁struck	-11.3717
資本	-11.3717
▁Bud	-11.3718
全面	-11.3719
his	-11.3719
ノス	-11.372
ものであり	-11.372
ライダー	-11.372
▁Kun	-11.3722
stead	-11.3722
▁Owen	-11.3723
淡	-11.3724
車は	-11.3725
▁frequency	-11.3726
▁patron	-11.3726
クション	-11.3727
1925	-11.3727
巨大な	-11.3728
▁Julie	-11.3728
▁trouble	-11.3729
伸び	-11.373
研究者	-11.373
▁LA	-11.3731
▁(13	-11.3731
▁Archbishop	-11.3732
東側	-11.3732
1923	-11.3733
の中では	-11.3734
▁modified	-11.3735
ception	-11.3735
▁(14	-11.3737
半分	-11.3738
みんな	-11.3738
▁soft	-11.3741
発明	-11.3742
▁prop	-11.3742
▁bra	-11.3746
▁instrumental	-11.3746
▁Dai	-11.3747
▁Pot	-11.3748
さえ	-11.3748
ンス	-11.3749
▁(9	-11.3749
▁neck	-11.3749
▁Care	-11.3751
感情	-11.3752
PD	-11.3752
ê	-11.3753
craft	-11.3754
ウム	-11.3754
確定	-11.3754
▁Spirit	-11.3756
▁memorial	-11.3756
ジェン	-11.3757
初め	-11.3758
敷地	-11.3759
▁AS	-11.3759
▁Fine	-11.376
公認	-11.3761
の前に	-11.3761
駆	-11.3762
▁Pic	-11.3763
好きな	-11.3763
▁courts	-11.3765
nc	-11.3765
▁Emer	-11.3765
▁perfect	-11.3768
時代から	-11.3769
献	-11.3769
何か	-11.377
▁subjects	-11.3771
▁Magn	-11.3774
rou	-11.3774
北京	-11.3776
EM	-11.3776
▁Rico	-11.3776
▁components	-11.3777
大島	-11.3779
られない	-11.378
出して	-11.3781
1926	-11.3782
▁Vermont	-11.3782
怒	-11.3783
福山	-11.3784
▁Thunder	-11.3785
てる	-11.3785
独自	-11.3786
以外	-11.3786
大津	-11.3786
front	-11.3786
▁Denver	-11.3787
えん	-11.3787
飛ば	-11.3788
協議会	-11.3789
エンタテインメント	-11.3791
在位	-11.3792
ツェ	-11.3792
oka	-11.3795
斬	-11.3796
を獲得した	-11.3796
▁profit	-11.3797
▁Villages	-11.3797
▁mini	-11.3799
ハンガリー	-11.38
婚	-11.3802
asse	-11.3802
ched	-11.3802
stroke	-11.3803
で放送	-11.3804
認可	-11.3805
損	-11.3806
▁plea	-11.3806
uter	-11.3807
変形	-11.3807
▁defeating	-11.3808
▁tube	-11.3809
▁Bobby	-11.381
OVA	-11.381
地理	-11.381
遷	-11.381
▁1862	-11.3812
傘下	-11.3813
▁Hai	-11.3813
忘れ	-11.3813
敗れ	-11.3813
lé	-11.3814
田町	-11.3815
prov	-11.3817
ession	-11.3818
1959	-11.382
▁Along	-11.3822
山下	-11.3823
▁Economy	-11.3825
▁physician	-11.3825
他にも	-11.3825
PI	-11.3826
zar	-11.3826
ポスト	-11.3828
出演者	-11.3829
rink	-11.383
同日	-11.383
▁Yellow	-11.3831
▁departure	-11.3831
lation	-11.3832
▁existed	-11.3832
その後の	-11.3836
アカデミー	-11.3836
水曜	-11.3837
、2021	-11.3837
▁poets	-11.3838
詰	-11.3839
▁venue	-11.384
▁indicate	-11.384
なくなる	-11.3841
▁hydro	-11.3842
大字	-11.3842
語り	-11.3842
屈	-11.3843
mad	-11.3843
リエ	-11.3846
▁Double	-11.3846
関西テレビ	-11.3849
証券	-11.385
インチ	-11.3851
異常	-11.3853
威	-11.3855
late	-11.3855
北朝鮮	-11.3856
▁missile	-11.3856
kon	-11.3859
パッケージ	-11.3859
機が	-11.3859
▁ratio	-11.386
民主	-11.3862
▁completion	-11.3862
河原	-11.3863
放送開始	-11.3863
▁Salt	-11.3864
会社の	-11.3864
base	-11.3865
されるが	-11.3865
▁Jose	-11.3866
gil	-11.3866
経路	-11.3867
▁Ever	-11.3867
を持った	-11.3868
興行	-11.3868
攻め	-11.3869
列車が	-11.3871
range	-11.3872
▁survive	-11.3872
北区	-11.3874
復興	-11.3874
▁stress	-11.3874
▁1861	-11.3876
trans	-11.3877
itis	-11.3877
宋	-11.3878
▁Diamond	-11.3878
sten	-11.3879
邪	-11.388
ポップ	-11.388
▁span	-11.3881
自社	-11.3881
コウ	-11.3881
予算	-11.3881
▁faith	-11.3884
▁58	-11.3885
▁(1996)	-11.3888
▁Nam	-11.3888
で初めて	-11.3888
tun	-11.3888
▁Mega	-11.3889
移行	-11.3889
▁Unlike	-11.3889
▁roughly	-11.3891
市街地	-11.3891
降り	-11.3893
ウクライナ	-11.3893
トラン	-11.3895
徳島	-11.3895
年にかけて	-11.3895
年からは	-11.3896
全集	-11.3897
保健	-11.39
than	-11.39
▁somewhat	-11.3901
▁Neo	-11.3901
▁occasionally	-11.3902
dell	-11.3902
悲	-11.3902
町駅	-11.3903
▁concerns	-11.3911
メダル	-11.3911
lling	-11.3911
あん	-11.3913
▁filled	-11.3913
庁舎	-11.3913
懐	-11.3915
▁happen	-11.392
▁cook	-11.3921
最後に	-11.3922
▁Within	-11.3922
▁Trinity	-11.3922
▁adding	-11.3923
警備	-11.3924
がなく	-11.3924
伏	-11.3924
="2"|-||	-11.3924
カナ	-11.3926
▁interested	-11.3927
▁rider	-11.3928
一定	-11.3929
短縮	-11.3932
ほん	-11.3932
writer	-11.3933
高山	-11.3933
空中	-11.3933
実力	-11.3934
訴え	-11.3934
発表された	-11.3934
▁policies	-11.3935
オンライン	-11.3936
軍が	-11.3936
集英社	-11.3937
フェリー	-11.3938
脈	-11.394
そんな	-11.3941
EMI	-11.3941
マックス	-11.3942
キャスト	-11.3942
oul	-11.3943
▁someone	-11.3943
セレ	-11.3944
の位置	-11.3945
grad	-11.3945
広島市	-11.3945
ことにより	-11.3947
▁Nik	-11.3947
各地	-11.3947
▁pain	-11.3947
コスト	-11.3949
uring	-11.3949
▁CH	-11.3949
開発した	-11.3951
されているが	-11.3952
▁kg	-11.3952
近江	-11.3953
dication	-11.3954
lines	-11.3955
1918	-11.3955
stat	-11.3955
Fa	-11.3955
収録されている	-11.3956
▁Gan	-11.3957
omo	-11.3957
▁Quarter	-11.3958
▁Oliver	-11.3958
▁Parker	-11.3958
費用	-11.3962
▁Nicholas	-11.3963
▁Version	-11.3964
▁mobile	-11.3964
SHI	-11.3967
ツィ	-11.3968
hun	-11.3969
▁Nine	-11.3969
湿	-11.3969
gui	-11.3971
SW	-11.3971
タス	-11.3972
張り	-11.3975
分裂	-11.3976
▁Faculty	-11.3976
▁Persian	-11.3976
▁Universal	-11.3976
の記録	-11.3977
賞受賞	-11.3977
組み合わせ	-11.3978
▁Christianity	-11.3978
▁Turner	-11.3978
▁tell	-11.3978
fefef	-11.3979
に分かれ	-11.398
▁requires	-11.3981
効率	-11.3982
▁heritage	-11.3982
ライナー	-11.3983
▁Friends	-11.3984
▁Golf	-11.3984
彼が	-11.3984
置き	-11.3986
▁soldier	-11.3987
愛の	-11.3988
▁alcohol	-11.3989
▁submarine	-11.3989
見る	-11.3989
ソウル	-11.3989
踏	-11.3991
地形	-11.3991
▁weekend	-11.3991
hoe	-11.3991
ガード	-11.3992
1919	-11.3992
(1977	-11.3994
監督の	-11.3994
誘導	-11.3995
▁fixed	-11.3995
avan	-11.3995
体を	-11.3996
▁window	-11.3996
メカ	-11.3996
exp	-11.3997
ディス	-11.3997
▁dress	-11.3998
菓子	-11.3998
ずに	-11.3998
駆動	-11.3999
国境	-11.4001
構築	-11.4001
取扱	-11.4002
わか	-11.4002
city	-11.4003
live	-11.4005
シオ	-11.4006
知り	-11.4006
マリオ	-11.4007
gia	-11.4009
京都府	-11.4009
看護	-11.401
▁midfielder	-11.4011
▁fund	-11.4011
▁wish	-11.4012
▁uncle	-11.4013
▁藤	-11.4013
豊田	-11.4015
トレー	-11.4016
▁observation	-11.4017
火山	-11.4018
NTT	-11.4018
珠	-11.4018
Bar	-11.4018
RPG	-11.4019
理事	-11.4019
▁activist	-11.4019
▁utiliz	-11.402
コミュニティ	-11.4022
標	-11.4022
▁annually	-11.4024
▁Profile	-11.4024
▁chapel	-11.4024
クレジット	-11.4026
▁wooden	-11.4026
携帯電話	-11.4027
郵便	-11.4028
グループの	-11.4028
afe	-11.4029
gest	-11.4033
子ども	-11.4033
1936	-11.4035
停留場	-11.4036
に帰	-11.4036
が行われている	-11.4037
active	-11.4037
fre	-11.4038
pla	-11.4038
奈良県	-11.404
▁Deep	-11.4041
nant	-11.4042
▁pin	-11.4044
β	-11.4046
▁flows	-11.4046
▁palace	-11.4046
▁Brad	-11.4048
ipe	-11.4048
cock	-11.4048
エク	-11.4049
酷	-11.4052
▁thousands	-11.4052
▁controversy	-11.4052
地獄	-11.4052
翌日	-11.4054
1937	-11.4055
▁dialect	-11.4055
LC	-11.4056
wall	-11.4056
パターン	-11.4057
▁charter	-11.4057
再編	-11.4057
▁Origin	-11.4058
自殺	-11.4058
生放送	-11.4059
単に	-11.4059
ハリ	-11.4061
大会で	-11.4061
▁Architecture	-11.4062
▁Pun	-11.4062
▁patrol	-11.4063
▁select	-11.4063
▁rhythm	-11.4064
▁processes	-11.4065
市にある	-11.4067
▁1989,	-11.4069
dependent	-11.4069
るために	-11.407
▁Gay	-11.4071
グレード	-11.4071
少ない	-11.4071
上がり	-11.4071
の旅	-11.4072
▁Hawaii	-11.4072
▁poems	-11.4073
西洋	-11.4076
以外は	-11.4077
▁Gilbert	-11.4078
▁earth	-11.4078
大佐	-11.408
天然	-11.4081
▁cave	-11.4081
▁veteran	-11.4081
いつも	-11.4081
SV	-11.4082
cies	-11.4082
pm	-11.4083
、1997	-11.4083
を集め	-11.4083
▁sat	-11.4084
▁Arena	-11.4084
の方が	-11.4085
賞を受賞	-11.4086
▁Deb	-11.4087
最強	-11.4088
▁credits	-11.4088
小山	-11.4089
侍	-11.409
direct	-11.409
ニス	-11.4091
▁sto	-11.4092
〜」	-11.4093
▁八	-11.4094
▁†	-11.4095
獄	-11.4096
1.0	-11.4097
▁initiative	-11.4097
1924	-11.4097
オフィス	-11.4098
発電	-11.4099
子と	-11.4099
1922	-11.41
大きい	-11.4102
▁Turk	-11.4102
▁2018.	-11.4104
マグ	-11.4104
▁Too	-11.4106
agan	-11.4106
▁wedding	-11.4107
年代後半	-11.4107
出て	-11.4107
に対しては	-11.4108
際には	-11.4109
日中	-11.4109
lick	-11.4111
GC	-11.4114
▁Baby	-11.4114
tia	-11.4114
に入って	-11.4116
▁(1995)	-11.4116
▁hole	-11.4117
▁remainder	-11.4119
夫婦	-11.412
▁visitors	-11.4121
iano	-11.4121
KB	-11.4121
王者	-11.4122
テイ	-11.4123
▁variable	-11.4123
震	-11.4124
▁journalists	-11.4126
▁output	-11.4127
ことになった	-11.4127
▁performer	-11.4128
▁controversial	-11.4129
▁strategy	-11.4129
したことで	-11.4129
OU	-11.4129
▁comics	-11.4132
エンド	-11.4134
▁craft	-11.4134
udi	-11.4134
▁rebel	-11.4135
▁surrender	-11.4135
ffin	-11.4137
を題材とした	-11.4137
▁1876	-11.4137
マリー	-11.4138
メッセージ	-11.4139
クリスマス	-11.4139
観音	-11.414
made	-11.414
▁田中	-11.4142
▁gender	-11.4144
▁Ralph	-11.4145
日本軍	-11.4146
▁Muslims	-11.4146
東京大学	-11.4147
がわ	-11.4147
成田	-11.4148
hem	-11.4148
▁sleep	-11.4152
島根県	-11.4152
高さ	-11.4153
小松	-11.4154
リチャード	-11.4155
▁monarch	-11.4155
▁1878	-11.4155
リアル	-11.4157
▁net	-11.4159
描かれている	-11.4159
brook	-11.416
▁spoken	-11.4161
本拠地	-11.4161
load	-11.4161
▁XI	-11.4161
wise	-11.4162
▁painters	-11.4163
▁Baptist	-11.4163
固有	-11.4164
自衛隊	-11.4164
専用の	-11.4164
▁Pont	-11.4164
▁grown	-11.4165
ファイ	-11.4165
▁secure	-11.4165
▁1995.	-11.4166
中華人民共和国	-11.4168
smith	-11.4168
の時代	-11.4169
▁Lock	-11.4169
モール	-11.417
▁judges	-11.4171
site	-11.4171
高級	-11.4172
著書	-11.4172
力が	-11.4172
▁questions	-11.4172
期に	-11.4173
▁Kara	-11.4174
ç	-11.4175
学術	-11.4176
のに対し	-11.4177
したい	-11.4177
▁pole	-11.4178
こちら	-11.4178
▁noble	-11.4178
火曜	-11.4178
▁horses	-11.4179
▁coup	-11.4179
▁surrounded	-11.418
▁1865	-11.4181
dou	-11.4181
▁Single	-11.4182
晶	-11.4183
▁Neil	-11.4183
黄色	-11.4183
rai	-11.4183
を務め	-11.4184
▁Santo	-11.4185
▁victims	-11.4186
▁Yan	-11.4189
▁soul	-11.4189
▁Paper	-11.419
駆逐艦	-11.419
創業	-11.4191
和歌山	-11.4191
を採用	-11.4192
▁Lim	-11.4193
財産	-11.4193
▁missed	-11.4195
らし	-11.4195
hour	-11.4195
鳥取県	-11.4196
麦	-11.4197
例外	-11.4197
フランス語	-11.4197
用途	-11.4198
(1975	-11.42
▁Results	-11.42
▁Indianapolis	-11.42
央	-11.4201
を使った	-11.4201
▁Word	-11.4202
▁Fab	-11.4202
イタリアの	-11.4203
ランク	-11.4204
▁Eddie	-11.4204
▁Por	-11.421
pine	-11.421
West	-11.4211
▁gay	-11.4211
lett	-11.4211
▁Wor	-11.4212
主要な	-11.4212
▁objective	-11.4213
イズ	-11.4213
750	-11.4214
ée	-11.4214
チャート	-11.4215
以	-11.4217
▁Lev	-11.4217
power	-11.4217
gua	-11.4218
糖	-11.4219
▁Sox	-11.4221
iddle	-11.4222
▁percentage	-11.4223
▁Transit	-11.4224
▁Mari	-11.4224
▁埼玉県	-11.4225
を中心とした	-11.4226
請求	-11.4226
▁Assistant	-11.4226
覧	-11.4226
▁hop	-11.4229
印象	-11.4229
の対象	-11.4229
てしまった	-11.4229
▁63	-11.4231
▁Croatia	-11.4232
▁Fun	-11.4233
▁Bulgarian	-11.4234
意思	-11.4236
▁1879	-11.4236
▁Abbey	-11.4236
▁sentenced	-11.4237
高架	-11.4237
愛媛県	-11.4237
再現	-11.4239
▁childhood	-11.424
乾	-11.4242
▁1863	-11.4243
連結	-11.4243
京成	-11.4243
ユーザー	-11.4244
▁helping	-11.4245
▁client	-11.4246
▁pack	-11.4246
斗	-11.4247
先の	-11.4248
Bu	-11.4249
▁Ful	-11.4249
▁measures	-11.425
目を	-11.425
▁Ari	-11.4252
в	-11.4253
▁meters	-11.4253
しばらく	-11.4255
▁Room	-11.4257
▁affairs	-11.4257
慈	-11.4258
170	-11.426
▁Bert	-11.426
pat	-11.426
開店	-11.4261
顧問	-11.4262
▁acquisition	-11.4262
lian	-11.4263
苦し	-11.4263
Sha	-11.4264
入れた	-11.4264
▁Gy	-11.4265
▁Bab	-11.4266
▁crisis	-11.4268
日野	-11.4268
伝承	-11.4269
黒い	-11.4272
(1976	-11.4272
▁formula	-11.4274
フォル	-11.4276
wich	-11.4276
巡洋艦	-11.4278
接触	-11.4279
バーン	-11.428
▁Case	-11.428
顕	-11.4281
、1980	-11.4281
▁competitive	-11.4281
▁ideal	-11.4284
▁Lloyd	-11.4285
hat	-11.4286
ents	-11.4287
ヨン	-11.4288
▁diocese	-11.4288
▁balance	-11.4288
CPU	-11.4288
▁convicted	-11.4288
作画	-11.4288
▁ago	-11.4289
▁Abu	-11.429
▁deliver	-11.429
▁sight	-11.4291
▁forests	-11.4292
▁Ei	-11.4293
▁athletes	-11.4293
▁movements	-11.4293
▁Holland	-11.4293
▁worth	-11.4293
ボクシング	-11.4294
ディズニー	-11.4294
lyn	-11.4294
▁involvement	-11.4295
ビュー	-11.4297
腐	-11.4298
▁construct	-11.4298
粒子	-11.4298
metric	-11.4298
▁Poetry	-11.4299
で最も	-11.43
解除	-11.43
電波	-11.4301
離婚	-11.4301
▁duo	-11.4304
ワシントン	-11.4304
激しい	-11.4305
temp	-11.4305
妃	-11.4306
iformes	-11.4306
採用された	-11.4308
▁Delhi	-11.4309
上海	-11.431
察	-11.4311
▁Artist	-11.4312
▁hearing	-11.4312
▁enjoy	-11.4313
mul	-11.4315
lift	-11.4317
▁Confederate	-11.4317
▁@	-11.4318
▁Andre	-11.4319
県立	-11.4319
大学の教員	-11.4319
空母	-11.432
諏訪	-11.4321
pond	-11.4321
実績	-11.4322
発音	-11.4325
ario	-11.4325
eff	-11.4325
入門	-11.4325
キャリア	-11.4327
▁Writing	-11.4327
促進	-11.4328
CBC	-11.4329
なかったが	-11.433
▁emergency	-11.4331
▁helicopter	-11.4331
="2"|	-11.4333
▁personality	-11.4333
▁Java	-11.4334
lob	-11.4335
▁artistic	-11.4336
iac	-11.4337
▁Norfolk	-11.4337
▁reputation	-11.4337
が見られる	-11.4337
斎藤	-11.4338
▁Dom	-11.4339
出発	-11.434
▁agriculture	-11.434
▁Petr	-11.4341
を進め	-11.4342
であったため	-11.4342
の戦いで	-11.4343
桐	-11.4343
ロケ	-11.4344
働き	-11.4345
▁Leo	-11.4345
▁Dol	-11.4346
ハンド	-11.4347
▁transmission	-11.4347
▁Bear	-11.4348
山城	-11.4349
イスラエル	-11.435
▁Chapter	-11.435
伊達	-11.4351
ym	-11.4351
フォーク	-11.4352
との間に	-11.4353
▁Yama	-11.4353
応用	-11.4353
ポル	-11.4354
▁vision	-11.4354
Pre	-11.4355
名鉄	-11.4355
還	-11.4356
虚	-11.4357
▁Hudson	-11.4357
▁Fen	-11.4357
▁その他	-11.4359
を記録した	-11.436
▁Athens	-11.436
▁120	-11.4361
▁biography	-11.4361
▁counties	-11.4362
を始め	-11.4363
▁manuscript	-11.4363
▁Metal	-11.4364
エド	-11.4365
▁Hugh	-11.4365
がい	-11.4366
この頃	-11.4368
出雲	-11.4368
▁Students	-11.4369
▁shell	-11.4369
hom	-11.4369
の再	-11.437
琉球	-11.437
の建設	-11.4371
▁recruit	-11.4372
▁rec	-11.4372
0.5	-11.4372
中隊	-11.4373
握	-11.4373
を起こし	-11.4373
1954	-11.4374
征	-11.4374
▁AP	-11.4375
▁longest	-11.4376
プレス	-11.4376
▁Peak	-11.4376
いだ	-11.4376
yon	-11.4377
求	-11.4378
放射	-11.4378
▁Artists	-11.4379
TOKYO	-11.438
▁vessels	-11.4381
名古屋市	-11.4381
▁pit	-11.4384
わら	-11.4385
に合わせて	-11.4385
▁SO	-11.4387
▁giant	-11.4387
▁https	-11.4388
手術	-11.4389
経過	-11.4389
four	-11.439
▁warm	-11.439
▁1864	-11.4391
どこ	-11.4393
者として	-11.4394
▁Tal	-11.4394
ジャズ	-11.4395
の弟	-11.4395
ワード	-11.4395
コート	-11.4397
▁Still	-11.4398
を出す	-11.4398
土曜日	-11.4399
香川県	-11.4399
FR	-11.4399
ゴジラ	-11.44
大学教授	-11.4402
▁Gru	-11.4402
▁Direct	-11.4403
▁brick	-11.4405
1938	-11.4406
追放	-11.4407
才	-11.4409
EG	-11.441
lude	-11.441
▁(2012)	-11.4412
上陸	-11.4412
lves	-11.4413
レール	-11.4414
スキ	-11.4414
▁Cork	-11.4415
dre	-11.4418
▁Blo	-11.4418
110	-11.4418
▁Hour	-11.4419
理事長	-11.4419
戦前	-11.4419
▁forming	-11.442
市出身	-11.4422
芽	-11.4423
が登場	-11.4423
アレンジ	-11.4423
気候	-11.4427
が高く	-11.4429
▁premiered	-11.4431
ディーゼル	-11.4433
ていった	-11.4435
▁Morning	-11.4435
さき	-11.4435
マラソン	-11.4437
▁licensed	-11.4438
▁CE	-11.4441
プライ	-11.4443
バイオ	-11.4443
▁MI	-11.4443
AG	-11.4444
もん	-11.4445
吉野	-11.4445
、1996	-11.4447
ティア	-11.4448
▁copy	-11.4449
出演した	-11.4449
▁Microsoft	-11.445
VHS	-11.4451
▁Until	-11.4451
EST	-11.4451
タカ	-11.4451
ウイルス	-11.4452
短い	-11.4453
▁none	-11.4454
恐怖	-11.4456
▁detect	-11.4456
▁revenue	-11.4456
icus	-11.4457
霧	-11.4458
▁Right	-11.4458
MX	-11.4458
▁Gran	-11.4459
▁tenure	-11.446
▁appropriate	-11.446
をして	-11.446
–12	-11.446
であっても	-11.4461
致	-11.4462
講師	-11.4462
一定の	-11.4462
▁Pradesh	-11.4463
▁beautiful	-11.4463
▁Tel	-11.4463
▁Sil	-11.4464
登場し	-11.4464
▁diseases	-11.4465
ジャンル	-11.4466
、2022	-11.4467
▁turning	-11.4468
姫路	-11.4468
ソース	-11.4469
これらは	-11.4469
存続	-11.4469
先行	-11.447
▁Anglo	-11.4471
▁Pel	-11.4471
していった	-11.4472
▁underground	-11.4472
▁Bulgaria	-11.4474
▁Cel	-11.4475
▁formally	-11.4476
チェン	-11.4477
チョウ	-11.4479
▁Mason	-11.4479
ops	-11.448
みられる	-11.448
学研究科	-11.4482
order	-11.4482
鉄道の	-11.4482
熊本県	-11.4483
▁debuted	-11.4484
中期	-11.4485
▁explained	-11.4486
▁Additional	-11.4488
ならば	-11.4489
called	-11.449
▁Tang	-11.4493
▁threatened	-11.4493
みつ	-11.4494
▁Lion	-11.4495
▁carrier	-11.4497
病気	-11.4497
▁Soon	-11.4498
本店	-11.4498
入手	-11.4499
amba	-11.4499
講座	-11.4501
▁2019.	-11.4501
複合	-11.4502
飯田	-11.4502
▁Hel	-11.4502
の登場人物	-11.4506
Gu	-11.4507
ミラー	-11.4508
sized	-11.4508
▁salt	-11.4509
たとえば	-11.4509
▁Philippine	-11.451
バカ	-11.451
UR	-11.4511
付ける	-11.4511
スリー	-11.4514
▁boundary	-11.4514
mates	-11.4515
▁Aero	-11.4515
▁regime	-11.4516
▁papers	-11.4516
▁declined	-11.4516
トルコ	-11.4518
再度	-11.452
▁argue	-11.4521
lton	-11.4521
ife	-11.4522
に移籍	-11.4523
dine	-11.4525
▁RAF	-11.4526
▁Archive	-11.4526
bru	-11.4527
平安時代	-11.4527
▁Herbert	-11.4529
鳳	-11.4529
ニッポン放送	-11.4531
ひとり	-11.4531
▁ruin	-11.4531
百貨店	-11.4533
▁lieutenant	-11.4533
を有し	-11.4533
陸上競技	-11.4533
鍋	-11.4536
▁Peninsula	-11.4536
▁payment	-11.4536
▁males	-11.4538
ウッド	-11.4539
文芸	-11.454
の内容	-11.454
AE	-11.4541
▁MC	-11.4541
shin	-11.4542
トーナメント	-11.4542
▁Conservation	-11.4543
tian	-11.4543
なぜ	-11.4544
リード	-11.4546
▁superior	-11.4546
story	-11.4547
近畿	-11.4547
を発表した	-11.4548
formerly	-11.4549
eira	-11.455
トリー	-11.455
▁platforms	-11.455
ô	-11.4551
東日本旅客鉄道	-11.4553
国会	-11.4553
▁Harold	-11.4553
年末	-11.4554
▁Electronic	-11.4554
▁1881	-11.4554
Windows	-11.4555
▁Slovakia	-11.4555
▁finals	-11.4555
鳥取	-11.4555
▁volumes	-11.4555
cate	-11.4557
50%	-11.4557
▁Friday	-11.4558
つけた	-11.456
▁Jefferson	-11.456
▁2–1	-11.456
ボーイ	-11.4561
▁1850	-11.4562
▁6:	-11.4562
▁Ghost	-11.4562
▁Bachelor	-11.4563
▁alternate	-11.4563
dorf	-11.4563
に乗り	-11.4565
事例	-11.4565
用いる	-11.4565
経済学	-11.4566
▁Thor	-11.4567
はじめ	-11.4568
使われ	-11.4568
を通して	-11.4568
▁eat	-11.457
▁nations	-11.4571
▁Yale	-11.4573
ケーブル	-11.4575
借	-11.4576
織田	-11.4576
最終回	-11.4577
▁losses	-11.4579
社名	-11.458
▁Population	-11.458
ハラ	-11.4581
▁Grace	-11.4583
自分が	-11.4584
ña	-11.4584
▁Vocal	-11.4584
▁lists	-11.4586
に復帰	-11.4586
▁anything	-11.4587
レストラン	-11.4587
1958	-11.4587
セミ	-11.4588
田駅	-11.4589
ROM	-11.4589
▁relief	-11.459
ild	-11.459
ルイス	-11.4591
▁debt	-11.4591
筒	-11.4592
遺産	-11.4593
高崎	-11.4593
ヒロ	-11.4593
エッ	-11.4593
And	-11.4594
▁considerable	-11.4596
lich	-11.4596
▁reader	-11.4596
▁preparation	-11.4597
全域	-11.4597
arra	-11.4597
限り	-11.4597
ogen	-11.4599
rator	-11.4599
認	-11.4599
アニ	-11.46
▁artillery	-11.46
YA	-11.46
▁rifle	-11.4604
▁Whi	-11.4604
▁demo	-11.4604
面で	-11.4606
▁アメリカの	-11.4606
cephal	-11.4606
授与	-11.4607
▁Clinton	-11.4607
プラザ	-11.4607
森林	-11.4607
1921	-11.4607
ボウ	-11.4608
▁1987,	-11.4609
出資	-11.4609
pent	-11.4609
アメリカン	-11.4609
▁daughters	-11.461
迷	-11.4611
又	-11.4612
の違い	-11.4612
▁increasingly	-11.4613
と呼ばれている	-11.4613
養成	-11.4613
貨	-11.4613
▁Rem	-11.4614
sport	-11.4615
重複	-11.4615
▁Spider	-11.4616
淵	-11.4617
equen	-11.4617
フリ	-11.4619
▁continuing	-11.462
▁Legacy	-11.462
▁stem	-11.4621
となったが	-11.4623
動力	-11.4623
nen	-11.4624
▁playoffs	-11.4625
炭	-11.4625
▁weapon	-11.4626
笹	-11.4627
izes	-11.4627
tang	-11.4628
berry	-11.4628
行われていた	-11.4629
不定期	-11.4629
腸	-11.4631
ロッ	-11.4631
▁Industrial	-11.4632
▁1871	-11.4633
▁mile	-11.4633
▁dancer	-11.4635
BU	-11.4637
▁changing	-11.4637
▁sole	-11.464
cular	-11.464
回路	-11.4641
▁Wallace	-11.4641
昇進	-11.4642
One	-11.4642
政府の	-11.4642
奉行	-11.4642
rah	-11.4644
▁suspended	-11.4647
▁Semi	-11.4647
を与え	-11.4647
出典	-11.4648
無い	-11.4648
scale	-11.465
駐車場	-11.465
▁drink	-11.4651
▁Release	-11.4652
そこ	-11.4655
ニカ	-11.4657
受信	-11.4658
▁Policy	-11.4658
北側	-11.4658
合体	-11.466
を追加	-11.4661
映画監督	-11.4661
This	-11.4666
の利用	-11.4667
研修	-11.467
聞き	-11.4671
されると	-11.4671
第四	-11.4671
ショウ	-11.4671
Love	-11.4671
▁archive	-11.4672
ダメージ	-11.4674
▁external	-11.4674
▁Operations	-11.4675
▁seal	-11.4675
ブーム	-11.4676
▁happened	-11.4677
されるようになった	-11.4677
▁Wheel	-11.4678
▁widow	-11.4678
事件の	-11.4678
▁Selected	-11.4681
▁sing	-11.4682
inae	-11.4683
水素	-11.4684
もともと	-11.469
全体の	-11.4691
▁1883	-11.4691
▁Shadow	-11.4692
fur	-11.4693
警視庁	-11.4693
灰	-11.4694
後藤	-11.4694
あげ	-11.4698
▁Shar	-11.4698
▁Sr	-11.47
▁airline	-11.4702
べく	-11.4702
トス	-11.4703
イト	-11.4706
種類の	-11.4708
蛇	-11.4708
達成	-11.471
柴	-11.4711
▁denied	-11.4712
おう	-11.4712
▁orbit	-11.4712
▁愛知県	-11.4713
wai	-11.4715
▁1994.	-11.4715
▁Anglican	-11.4715
▁frequent	-11.4715
▁Sig	-11.4717
▁千葉県	-11.4717
▁GT	-11.4718
象	-11.4718
ヘンリー	-11.4718
ギリシア	-11.4718
▁Treaty	-11.4719
oso	-11.472
▁Ok	-11.4721
機動戦士ガンダム	-11.4722
▁portrait	-11.4722
tting	-11.4724
附	-11.4725
孔	-11.4725
▁fantasy	-11.4726
▁database	-11.4726
▁中村	-11.4726
埋め	-11.4726
射撃	-11.4727
▁arrangement	-11.4727
会話	-11.4729
駅で	-11.4732
盛岡	-11.4732
みや	-11.4734
供	-11.4734
唱	-11.4735
改札	-11.4735
▁shares	-11.4735
あさ	-11.4736
まん	-11.4736
kill	-11.4736
によるもの	-11.4739
▁Female	-11.4739
▁Animal	-11.474
nick	-11.474
体育館	-11.4741
▁bull	-11.4741
順位	-11.4741
▁Bee	-11.4741
悪化	-11.4742
のシングル	-11.4742
帰還	-11.4742
▁massive	-11.4743
デモ	-11.4746
走る	-11.4746
を利用して	-11.4749
族の	-11.475
▁conversion	-11.475
Wa	-11.475
▁retreat	-11.4752
安打	-11.4752
ってきた	-11.4752
▁Brisbane	-11.4753
▁phrase	-11.4753
▁household	-11.4754
の販売	-11.4754
例として	-11.4757
March	-11.4758
▁fin	-11.4758
piece	-11.4759
したものの	-11.4759
日付で	-11.4761
提	-11.4762
最近	-11.4762
川駅	-11.4765
ビール	-11.4766
陶	-11.4767
タンク	-11.4767
▁authors	-11.4768
れて	-11.4768
▁1872	-11.4769
▁Planet	-11.477
近い	-11.477
モス	-11.4772
SK	-11.4773
秋田県	-11.4773
刃	-11.4773
青木	-11.4776
筑	-11.4776
▁Wang	-11.4776
貝	-11.4776
▁crown	-11.4778
▁Pete	-11.4778
下車	-11.4779
会計	-11.4779
年連続	-11.478
台車	-11.4781
▁Travel	-11.4782
YO	-11.4782
▁distinguished	-11.4783
1956	-11.4783
婦	-11.4784
IDE	-11.4785
と言われる	-11.4785
▁69	-11.4785
一つ	-11.4785
不動産	-11.4786
▁Hur	-11.4786
並行	-11.4787
ドイツ語	-11.4787
ego	-11.4789
旧制	-11.4791
脱退	-11.4792
▁250	-11.4792
オオ	-11.4793
▁influential	-11.4794
行われている	-11.4795
▁qualifying	-11.4795
dow	-11.4795
支社	-11.4795
▁Google	-11.4796
カタ	-11.4797
寧	-11.4797
護衛	-11.4798
▁Danny	-11.4799
、1995	-11.4799
態度	-11.4799
鹿島	-11.4799
▁historians	-11.48
▁Ottawa	-11.4801
▁valid	-11.4802
▁consumer	-11.4803
▁videos	-11.4803
▁rates	-11.4803
分解	-11.4804
といわれる	-11.4804
▁1992.	-11.4805
様式	-11.4806
handed	-11.4807
ão	-11.4808
支払	-11.4809
TM	-11.4812
▁Rep	-11.4813
打者	-11.4813
owned	-11.4814
磐	-11.4814
月発売	-11.4814
海洋	-11.4814
が設置されている	-11.4816
▁relocated	-11.4817
▁Berkeley	-11.4818
▁occasions	-11.4819
かね	-11.4819
南西	-11.4819
マイク	-11.482
▁apart	-11.4821
media	-11.4822
ワーク	-11.4823
▁Ir	-11.4825
country	-11.4825
▁Wen	-11.4825
Ga	-11.4826
▁cool	-11.4829
turn	-11.483
kal	-11.4831
貧	-11.4832
▁philosopher	-11.4832
▁ocean	-11.4832
▁lasted	-11.4832
!?	-11.4832
▁Step	-11.4832
other	-11.4834
def	-11.4835
▁Chester	-11.4836
Ver	-11.4837
貸	-11.4838
▁Nov	-11.4838
登板	-11.484
を持って	-11.4841
停車場線	-11.4841
電化	-11.4841
普通科	-11.4842
るように	-11.4843
▁vessel	-11.4845
日付	-11.4845
▁equipped	-11.4846
(1973	-11.4846
▁saint	-11.4847
深く	-11.4847
scribed	-11.4849
付けた	-11.485
fr	-11.485
歳以上	-11.4851
guard	-11.4851
に転	-11.4856
▁violin	-11.4856
バード	-11.4856
▁68	-11.4856
萩	-11.4859
あら	-11.486
ラク	-11.4861
ェ	-11.4861
先発	-11.4861
体系	-11.4861
選抜	-11.4864
かす	-11.4865
▁1875	-11.4866
司法	-11.4867
ヶ丘	-11.4867
を担当した	-11.4868
ジェームズ	-11.487
カワ	-11.4871
量の	-11.4872
▁songwriter	-11.4872
●	-11.4873
するようになった	-11.4873
烏	-11.4873
▁lecture	-11.4874
離れた	-11.4875
Am	-11.4875
▁Baronet	-11.4876
nin	-11.4876
▁(2013)	-11.4877
の影響で	-11.4878
宣伝	-11.4878
かみ	-11.4879
来る	-11.4879
chel	-11.488
ß	-11.488
phan	-11.4881
▁現在	-11.4882
ラジオ番組	-11.4883
ヴィー	-11.4883
まつり	-11.4884
rier	-11.4884
▁Got	-11.4884
定着	-11.4884
▁1874	-11.4885
代わり	-11.4886
▁Fran	-11.4886
rating	-11.4886
▁participation	-11.4887
▁fighter	-11.4888
明らかに	-11.4888
▁earning	-11.4889
ノイ	-11.489
▁climb	-11.4894
itude	-11.4895
ilo	-11.4896
積極的に	-11.4897
推薦	-11.4897
グラフィック	-11.4898
tone	-11.4899
▁Vis	-11.49
退職	-11.4903
同士	-11.4904
現れる	-11.4904
を守る	-11.4904
意図	-11.4905
暴力	-11.4907
▁loop	-11.4908
▁Treaties	-11.4908
▁concrete	-11.4908
▁surgery	-11.4908
▁dated	-11.4909
▁Student	-11.491
当日	-11.4912
[...]
